<unk>	0
<s>	0
</s>	0
<sos>	0
<eos>	0
<pad>	0
.	-2.55833
▁and	-3.22607
,	-3.2933
▁the	-3.29514
▁to	-3.56825
▁a	-3.66391
▁was	-3.86089
▁it	-4.45406
▁"	-4.49574
▁She	-4.57566
▁her	-4.59465
▁He	-4.60657
▁They	-4.63214
'	-4.63894
▁said	-4.82585
▁The	-4.82736
▁he	-4.85461
▁in	-4.95738
▁she	-4.97775
▁with	-4.98595
▁Lily	-5.03964
s	-5.04817
▁his	-5.05966
▁day	-5.11714
▁that	-5.13324
▁of	-5.13731
▁you	-5.22364
▁had	-5.23143
▁they	-5.23689
▁so	-5.25269
▁on	-5.28611
▁for	-5.40916
▁very	-5.4736
!	-5.48182
▁time	-5.50363
▁little	-5.51519
▁there	-5.52566
▁mom	-5.54424
▁happy	-5.55941
▁It	-5.56614
▁is	-5.58467
▁saw	-5.60898
▁big	-5.61081
▁not	-5.6131
."	-5.61809
t	-5.61984
▁I	-5.68873
!"	-5.69864
▁but	-5.70905
▁were	-5.72426
▁play	-5.73205
Once	-5.73942
▁One	-5.75808
▁	-5.85334
▁are	-5.85393
▁wanted	-5.85684
▁girl	-5.86452
▁upon	-5.86641
▁him	-5.88175
▁them	-5.90636
▁their	-5.91428
▁have	-5.96939
▁be	-5.97643
▁up	-5.97936
▁Ben	-6.03927
▁went	-6.04451
▁Tom	-6.04971
▁go	-6.05712
?"	-6.08528
▁can	-6.09404
▁But	-6.09818
▁at	-6.09929
▁friends	-6.11007
▁all	-6.14001
▁back	-6.20655
▁Timmy	-6.22294
▁smiled	-6.22629
▁named	-6.2304
▁too	-6.2354
▁loved	-6.25354
▁asked	-6.26791
▁like	-6.27421
▁felt	-6.29097
▁could	-6.29124
▁fun	-6.29423
▁looked	-6.29739
▁around	-6.30447
▁out	-6.33575
▁boy	-6.37134
€	-6.38489
▁help	-6.41034
▁see	-6.43037
▁would	-6.43099
▁did	-6.43302
▁what	-6.43739
▁some	-6.4406
▁make	-6.44192
,"	-6.45028
▁away	-6.46595
▁says	-6.47984
▁started	-6.48099
▁ran	-6.48528
▁You	-6.48761
▁want	-6.50429
▁made	-6.51033
▁something	-6.5145
▁together	-6.51525
▁park	-6.53174
▁do	-6.56036
▁from	-6.56734
▁sad	-6.57873
I	-6.57884
▁put	-6.58318
▁new	-6.58628
▁home	-6.59971
▁again	-6.62686
▁found	-6.6282
▁then	-6.63249
▁bird	-6.63475
▁Tim	-6.65305
▁when	-6.65708
▁playing	-6.66963
▁other	-6.68041
▁who	-6.68577
▁things	-6.70533
▁liked	-6.71898
▁we	-6.73637
▁got	-6.7399
▁excited	-6.74386
▁friend	-6.75273
▁decided	-6.7542
▁came	-6.7613
▁one	-6.78079
▁scared	-6.7845
▁man	-6.7874
▁Mom	-6.79358
▁down	-6.80252
▁an	-6.82047
▁dog	-6.8423
▁find	-6.85152
▁your	-6.86362
▁will	-6.86387
▁get	-6.86415
â	-6.86793
▁Sam	-6.87753
▁didn	-6.87778
▁me	-6.87924
▁Max	-6.87941
▁always	-6.8866
▁took	-6.88738
▁about	-6.88757
▁mommy	-6.89758
▁toys	-6.90767
▁good	-6.9107
▁outside	-6.91711
▁tree	-6.9181
▁as	-6.93185
▁more	-6.93205
▁my	-6.9457
▁Anna	-6.95101
▁thought	-6.96254
▁take	-6.98199
▁old	-6.98226
▁special	-6.98983
▁knew	-7.00216
▁When	-7.00239
▁dad	-7.0201
▁car	-7.02544
▁Her	-7.02639
▁toy	-7.03395
▁how	-7.05691
▁sorry	-7.08005
▁know	-7.08137
▁much	-7.0855
▁So	-7.09177
▁house	-7.10364
▁Jack	-7.1187
▁look	-7.13771
▁into	-7.14019
▁tried	-7.14115
▁inside	-7.14445
▁told	-7.15149
▁this	-7.15552
m	-7.15673
▁if	-7.15877
▁couldn	-7.16442
▁gave	-7.16606
▁heard	-7.16746
▁ball	-7.17452
▁never	-7.17463
▁each	-7.17833
▁water	-7.1859
▁Suddenly	-7.19196
▁We	-7.19471
▁over	-7.19951
▁room	-7.20506
▁played	-7.2103
▁proud	-7.21548
▁Then	-7.22035
▁just	-7.22175
▁hugged	-7.22354
▁Mia	-7.24377
▁no	-7.24701
▁From	-7.248
▁because	-7.25403
▁His	-7.25757
▁many	-7.26753
▁nice	-7.30554
▁box	-7.30644
▁bear	-7.31295
▁And	-7.32794
▁until	-7.338
▁small	-7.34589
▁Sara	-7.35012
▁learned	-7.35178
▁â	-7.362
▁better	-7.36218
▁best	-7.38561
▁don	-7.38835
▁eat	-7.42162
▁careful	-7.42486
▁off	-7.42754
▁garden	-7.42852
▁thanked	-7.43655
▁laughed	-7.44073
▁sky	-7.44227
Yes	-7.45867
▁cat	-7.46231
▁say	-7.46649
▁by	-7.46659
▁come	-7.47213
▁even	-7.47458
▁end	-7.48389
▁beautiful	-7.48634
▁love	-7.48885
▁long	-7.49018
▁lots	-7.49357
▁still	-7.49833
▁animals	-7.50096
▁kind	-7.51479
?	-7.53238
▁both	-7.53942
▁way	-7.53944
▁safe	-7.555
▁let	-7.55885
▁two	-7.56664
▁feel	-7.56901
▁hard	-7.57497
▁lived	-7.5797
▁As	-7.5848
▁walked	-7.59335
▁Lucy	-7.60093
You	-7.60237
▁angry	-7.61058
▁family	-7.61217
It	-7.61657
▁people	-7.61798
▁flew	-7.61806
▁sun	-7.61977
▁called	-7.62019
▁red	-7.623
▁loud	-7.62351
▁hurt	-7.62685
▁try	-7.62762
▁every	-7.63166
▁soon	-7.633
▁brave	-7.63445
▁kept	-7.64054
▁After	-7.64422
▁share	-7.64855
▁bad	-7.65429
▁going	-7.66712
▁or	-7.67367
▁pretty	-7.68214
▁Mommy	-7.68493
▁noise	-7.69313
▁opened	-7.70159
▁shiny	-7.70289
▁before	-7.70956
▁should	-7.71471
Let	-7.72115
▁door	-7.72709
▁explore	-7.73023
▁run	-7.73047
▁ground	-7.73238
▁also	-7.73277
▁fast	-7.74167
▁idea	-7.74378
▁lot	-7.74459
▁hug	-7.74724
▁now	-7.75041
▁nodded	-7.75914
▁its	-7.76162
No	-7.76294
▁feeling	-7.76313
▁picked	-7.77364
▁next	-7.77795
▁keep	-7.77802
▁walking	-7.77825
▁John	-7.78924
▁has	-7.7909
▁Every	-7.79347
▁while	-7.79535
What	-7.80744
▁smile	-7.81035
▁need	-7.81627
▁being	-7.82721
▁give	-7.83293
▁show	-7.83297
▁looking	-7.85157
▁food	-7.85324
▁eyes	-7.86009
▁stopped	-7.86262
▁Spot	-7.88454
That	-7.88816
▁great	-7.8891
▁hand	-7.89448
▁ever	-7.89651
▁Sue	-7.89929
▁noticed	-7.89977
Thank	-7.90011
▁clean	-7.90013
▁forest	-7.90031
▁flowers	-7.90087
▁hands	-7.906
-	-7.90773
▁Bob	-7.92018
▁important	-7.9226
▁slide	-7.92469
▁fish	-7.93031
▁replied	-7.93297
▁showed	-7.94138
▁okay	-7.94505
Lily	-7.94734
▁listen	-7.9556
▁Sarah	-7.95908
▁right	-7.96394
▁after	-7.96473
▁watched	-7.96499
▁truck	-7.96583
▁everyone	-7.97406
▁voice	-7.97552
▁been	-7.9799
▁stay	-7.98094
▁quickly	-7.98737
▁rabbit	-7.98842
▁blue	-7.98896
▁where	-7.99099
▁goodbye	-8.00248
▁bed	-8.00612
▁different	-8.00642
▁face	-8.00862
▁place	-8.01012
We	-8.01205
▁walk	-8.01323
▁became	-8.01348
▁Jane	-8.01421
▁sure	-8.01508
re	-8.01669
▁work	-8.02252
▁high	-8.02428
▁closer	-8.02579
▁head	-8.04402
▁fly	-8.04996
▁store	-8.05156
Look	-8.05345
▁our	-8.05661
▁curious	-8.05789
▁three	-8.05924
▁cake	-8.06798
▁anymore	-8.07695
▁first	-8.08001
▁mean	-8.08249
▁here	-8.08827
▁Dad	-8.09437
▁use	-8.09839
▁doll	-8.10278
▁grabbed	-8.1032
▁strong	-8.10339
▁only	-8.11301
▁boat	-8.11668
▁fell	-8.11752
▁wait	-8.11843
▁us	-8.11941
One	-8.12078
▁night	-8.12246
▁Everyone	-8.12656
▁adventure	-8.12736
▁jumped	-8.12864
▁warm	-8.13116
▁kitchen	-8.13336
▁glad	-8.13563
▁That	-8.14121
▁helped	-8.14221
Can	-8.14304
▁does	-8.14784
▁birds	-8.15729
▁happened	-8.1609
▁cry	-8.16916
▁bunny	-8.17006
▁shouted	-8.17034
▁Joe	-8.17184
▁dress	-8.1753
▁book	-8.17549
▁story	-8.17679
▁Let	-8.17699
▁reached	-8.18426
▁realized	-8.18623
▁yummy	-8.18632
▁grass	-8.19616
▁having	-8.19704
▁mum	-8.19788
▁bright	-8.2008
▁game	-8.205
▁favorite	-8.20531
▁rock	-8.20566
▁sees	-8.20715
▁Lila	-8.20733
▁bit	-8.20992
▁ate	-8.21334
▁open	-8.2151
▁thing	-8.21747
▁am	-8.22234
▁really	-8.22451
▁through	-8.2276
▁ready	-8.22852
▁began	-8.23142
▁learn	-8.23509
▁world	-8.23564
▁lady	-8.23611
▁Can	-8.23835
▁watch	-8.23875
▁himself	-8.24196
▁done	-8.24805
▁making	-8.25146
▁coming	-8.25403
▁pond	-8.25708
▁looks	-8.25951
▁kids	-8.26063
▁waved	-8.26148
▁stop	-8.2619
▁why	-8.26344
▁tired	-8.26906
▁near	-8.27085
▁mouse	-8.27145
▁name	-8.27193
▁than	-8.27333
▁flower	-8.27812
▁Tommy	-8.28052
▁Do	-8.28177
▁worry	-8.28532
▁funny	-8.29066
▁used	-8.29443
▁seen	-8.29606
▁cars	-8.29902
▁parents	-8.30216
▁another	-8.30257
▁top	-8.30266
▁under	-8.30349
Wow	-8.30353
▁Sally	-8.30507
▁hopped	-8.30661
▁cried	-8.3068
▁doing	-8.31081
▁surprise	-8.31187
▁blocks	-8.31233
▁green	-8.32606
▁care	-8.32658
▁touch	-8.32724
▁think	-8.3276
▁soft	-8.33216
▁catch	-8.33893
▁lesson	-8.34149
▁brother	-8.343
▁floor	-8.3442
".	-8.34723
▁running	-8.34802
▁worked	-8.34855
▁full	-8.34867
▁years	-8.35285
▁paper	-8.3554
▁behind	-8.35568
▁pick	-8.35727
▁wished	-8.35784
▁A	-8.35819
▁yellow	-8.36173
▁-	-8.36428
▁happily	-8.36623
▁trees	-8.37463
▁surprised	-8.37866
▁Daisy	-8.37889
▁butterfly	-8.38299
▁carefully	-8.3873
TMs	-8.38867
Don	-8.39021
▁remembered	-8.39085
▁hole	-8.39116
▁lost	-8.3914
▁Benny	-8.39219
▁held	-8.39227
▁ice	-8.39867
▁needed	-8.40543
▁At	-8.40982
▁likes	-8.4099
▁tell	-8.41017
▁cold	-8.41443
▁left	-8.42214
▁cool	-8.42331
▁dark	-8.42538
▁hear	-8.42731
▁picture	-8.4288
▁sat	-8.42938
▁anything	-8.43068
▁enjoyed	-8.43242
▁wrong	-8.43279
Hello	-8.43288
▁buy	-8.43676
▁move	-8.4392
▁Now	-8.43921
▁followed	-8.44099
▁Finally	-8.44275
▁sound	-8.44335
▁children	-8.44802
Tom	-8.45327
▁delicious	-8.45418
▁finished	-8.45711
▁hat	-8.4591
▁friendly	-8.45995
▁herself	-8.4656
▁close	-8.46775
▁please	-8.4736
ll	-8.47685
▁Billy	-8.47935
▁frog	-8.48421
▁arrived	-8.48524
▁window	-8.48793
▁table	-8.48944
▁else	-8.49025
▁own	-8.4903
▁wonderful	-8.49044
▁Amy	-8.49376
▁wind	-8.49752
▁baby	-8.49895
▁swing	-8.50014
▁rain	-8.5004
▁colors	-8.50709
▁broken	-8.51051
▁read	-8.51303
▁able	-8.51378
▁gone	-8.51481
▁climb	-8.5227
▁sweet	-8.52607
▁filled	-8.52752
▁agreed	-8.531
▁someone	-8.53347
▁stick	-8.53547
▁continued	-8.53894
▁bag	-8.54207
▁tall	-8.54387
▁hill	-8.54464
▁books	-8.5452
▁pink	-8.55482
▁yes	-8.55511
▁There	-8.55599
▁leaves	-8.55926
▁enough	-8.56147
▁This	-8.56193
▁Molly	-8.56203
▁lion	-8.5626
▁any	-8.5669
▁jump	-8.56698
▁morning	-8.57241
▁understand	-8.57395
▁ask	-8.57881
▁finally	-8.58315
▁getting	-8.58486
▁far	-8.58928
▁stayed	-8.59091
▁hot	-8.59411
▁cookies	-8.59505
▁wants	-8.59989
▁laugh	-8.60306
▁beach	-8.60507
▁forgot	-8.60624
▁scary	-8.60811
▁Maybe	-8.60825
▁hair	-8.6088
▁sometimes	-8.61025
▁few	-8.61053
▁turned	-8.61551
▁hungry	-8.61578
▁dinner	-8.61624
▁mess	-8.61828
▁fire	-8.62132
▁grandma	-8.62279
▁What	-8.6231
▁mother	-8.62374
▁set	-8.62385
▁amazing	-8.63033
▁castle	-8.63066
▁trying	-8.63074
▁daddy	-8.63195
▁climbed	-8.64053
▁pictures	-8.65206
▁white	-8.65364
▁listened	-8.65581
▁wet	-8.65654
▁air	-8.65815
▁squirrel	-8.66248
▁cream	-8.6657
▁moment	-8.66738
▁alone	-8.66781
▁fix	-8.668
▁talk	-8.67009
▁smiles	-8.67181
▁clothes	-8.67504
▁puppy	-8.67814
▁rest	-8.67862
▁brought	-8.68355
▁others	-8.68394
▁everything	-8.68697
▁light	-8.69171
▁strange	-8.6918
▁makes	-8.69386
▁woods	-8.70151
▁pulled	-8.70168
▁tail	-8.70201
▁duck	-8.70212
▁ride	-8.70491
▁won	-8.70757
▁wasn	-8.71275
▁asks	-8.71964
▁joy	-8.72391
▁leave	-8.72436
Oh	-8.73267
▁Jill	-8.73479
▁might	-8.73486
▁fox	-8.73774
▁thank	-8.73823
▁amazed	-8.74072
▁waited	-8.74318
▁Soon	-8.74399
▁teddy	-8.74479
▁towards	-8.7483
▁hide	-8.74947
▁flying	-8.76623
▁owner	-8.76633
▁silly	-8.77126
▁shared	-8.77219
▁perfect	-8.77561
But	-8.77834
▁living	-8.78071
▁sing	-8.78212
▁lake	-8.78319
▁In	-8.78438
▁promised	-8.78564
▁Daddy	-8.78711
▁pretend	-8.78798
▁moral	-8.78811
▁runs	-8.79021
▁All	-8.79085
▁draw	-8.7925
▁job	-8.79465
This	-8.79626
▁deep	-8.7997
▁thinks	-8.80414
▁wear	-8.80591
▁party	-8.80764
▁race	-8.80903
Maybe	-8.81169
▁money	-8.8141
▁worried	-8.81885
▁sand	-8.82076
▁dance	-8.82363
▁slowly	-8.82598
▁colorful	-8.82742
▁Mary	-8.82782
▁faster	-8.82932
▁pieces	-8.83551
Okay	-8.83618
▁broke	-8.83667
▁grateful	-8.84227
▁such	-8.84293
▁bigger	-8.84349
Mom	-8.84682
▁monster	-8.85164
▁visit	-8.85195
▁train	-8.85331
O	-8.85824
▁candy	-8.86584
▁bike	-8.86862
▁sit	-8.87144
▁magical	-8.87189
▁Mama	-8.87642
▁dangerous	-8.87735
▁side	-8.87887
▁sister	-8.88027
▁across	-8.88222
▁farmer	-8.88255
▁cut	-8.88318
▁everywhere	-8.88523
▁helping	-8.88687
▁music	-8.88786
▁Just	-8.88819
▁join	-8.88906
▁most	-8.88968
▁smart	-8.8901
Mommy	-8.89923
▁dragon	-8.90178
▁sleep	-8.90541
▁words	-8.90692
▁tower	-8.90775
▁bite	-8.91256
▁spot	-8.91299
▁reach	-8.91311
▁tight	-8.91335
▁met	-8.91382
▁threw	-8.91502
▁stepped	-8.9153
▁heavy	-8.91612
▁river	-8.91613
▁field	-8.91676
▁bug	-8.92011
▁dirty	-8.9205
▁twins	-8.92114
▁same	-8.92177
▁crying	-8.92351
▁wall	-8.92788
TMt	-8.92819
▁believe	-8.92887
Sure	-8.92905
▁dolls	-8.9312
▁remember	-8.93168
▁princess	-8.9329
▁wouldn	-8.94127
▁Grandma	-8.94131
▁closed	-8.94473
▁balloon	-8.94549
▁song	-8.94798
Hi	-8.95122
▁stuck	-8.95146
▁start	-8.9533
▁turn	-8.95557
▁quiet	-8.95895
▁bowl	-8.96331
▁school	-8.96428
▁hoped	-8.96449
▁must	-8.96613
Why	-8.96649
▁brown	-8.96687
▁suddenly	-8.96934
▁eating	-8.97666
▁Emma	-8.97842
▁course	-8.97971
▁clapped	-8.98045
▁mouth	-8.98051
▁swim	-8.98219
▁fairy	-8.99013
▁gentle	-8.99347
▁town	-8.99541
▁feels	-8.99786
▁black	-9.00066
▁drove	-9.00099
▁paint	-9.00354
▁pushed	-9.00417
▁Jimmy	-9.00435
▁welcome	-9.00833
▁break	-9.0111
▁doctor	-9.01156
▁animal	-9.01255
▁blanket	-9.01285
▁without	-9.01416
▁Inside	-9.01419
▁higher	-9.01537
▁today	-9.01638
Ben	-9.02079
▁piece	-9.02834
▁swings	-9.02957
▁cheered	-9.03611
▁yard	-9.03622
▁child	-9.03762
▁wings	-9.03945
▁explained	-9.03952
▁longer	-9.04025
▁treasure	-9.045
The	-9.04607
▁teacher	-9.04667
▁games	-9.04974
▁pet	-9.05017
▁Their	-9.05384
▁late	-9.05517
▁sang	-9.05783
▁sign	-9.06168
Anna	-9.06284
▁Mum	-9.06619
▁magic	-9.06638
▁along	-9.06728
▁build	-9.07037
▁stories	-9.07163
▁shoes	-9.07414
▁turns	-9.07747
▁singing	-9.07893
▁apple	-9.07946
▁noises	-9.08118
▁fence	-9.08492
▁well	-9.08675
▁lonely	-9.08716
▁upset	-9.08868
▁hugs	-9.0894
▁dry	-9.08963
▁adventures	-9.09459
▁mine	-9.09612
▁young	-9.0964
▁wish	-9.09691
▁monkey	-9.09832
ing	-9.09972
▁pocket	-9.10027
▁year	-9.10361
▁shook	-9.10595
▁exploring	-9.1066
▁moved	-9.10763
▁bee	-9.10871
▁jar	-9.11135
▁nearby	-9.11148
▁naughty	-9.11291
▁soup	-9.11506
▁lunch	-9.11507
▁wise	-9.11514
▁fight	-9.11685
▁hold	-9.11819
▁Fluffy	-9.12217
▁stars	-9.12283
▁enjoy	-9.12513
▁owl	-9.12535
▁caught	-9.12549
▁forget	-9.12738
▁On	-9.12773
▁backyard	-9.12992
▁sea	-9.13048
▁seemed	-9.13137
▁chair	-9.13494
▁heart	-9.1359
▁dropped	-9.13603
▁street	-9.13692
▁purple	-9.14131
▁swam	-9.14438
▁orange	-9.14651
▁taking	-9.14861
▁though	-9.15011
▁rocks	-9.15294
e	-9.15474
▁nap	-9.15518
▁star	-9.15739
▁hit	-9.15858
▁Sammy	-9.15944
▁shapes	-9.16008
▁woke	-9.16575
▁bench	-9.16685
▁nose	-9.17191
▁wondered	-9.17299
▁busy	-9.17317
▁real	-9.17509
▁tiny	-9.17567
▁Later	-9.17713
▁sitting	-9.17865
▁daughter	-9.17943
▁kite	-9.17964
▁farm	-9.18189
▁sounds	-9.18232
▁juice	-9.18746
▁mad	-9.18763
▁holding	-9.18831
▁snow	-9.18839
"	-9.18988
▁nothing	-9.19637
▁nest	-9.19887
▁pull	-9.20028
▁arms	-9.20053
▁basket	-9.20186
▁With	-9.20789
▁secret	-9.20944
▁branch	-9.20957
▁fit	-9.21015
▁key	-9.21164
▁relieved	-9.21219
d	-9.21397
▁afraid	-9.21422
Do	-9.21734
▁gift	-9.2188
▁Mr	-9.21988
▁forever	-9.22109
▁fall	-9.22214
▁cute	-9.22285
▁bring	-9.22596
▁elephant	-9.22712
▁promise	-9.22746
▁comes	-9.22953
▁bucket	-9.23151
▁Thank	-9.2342
▁huge	-9.23871
▁dream	-9.23981
▁Come	-9.24012
▁touched	-9.2402
▁takes	-9.24221
▁hello	-9.24387
▁birthday	-9.24491
▁sick	-9.25017
▁exciting	-9.25163
▁sunny	-9.25205
▁cheese	-9.25366
Sara	-9.25396
▁round	-9.25708
▁onto	-9.2572
▁driver	-9.25747
▁pot	-9.25773
▁laughing	-9.25856
▁rainbow	-9.26016
▁drink	-9.26651
Of	-9.27079
▁bush	-9.27625
▁bread	-9.27922
▁bottle	-9.28066
▁Jenny	-9.28103
▁cozy	-9.28147
▁swimming	-9.28248
▁treat	-9.28669
▁journey	-9.28694
▁follow	-9.29048
▁instead	-9.29266
▁life	-9.29458
▁watching	-9.29485
▁cave	-9.29536
▁Emily	-9.29676
▁milk	-9.29706
▁plan	-9.29817
▁accidentally	-9.30017
▁sunshine	-9.30086
Hey	-9.31068
▁lucky	-9.31088
▁talked	-9.31299
▁pointed	-9.31442
▁sharp	-9.31668
▁grow	-9.31828
▁smiling	-9.325
▁bought	-9.32562
▁anyone	-9.32606
▁searched	-9.32875
▁later	-9.32905
▁honey	-9.335
ed	-9.33875
▁gives	-9.34372
▁hope	-9.34582
▁apples	-9.34719
▁plane	-9.34924
▁interesting	-9.35583
▁pile	-9.3573
▁woman	-9.35762
▁win	-9.36066
▁healthy	-9.36139
▁Jen	-9.36372
▁tasty	-9.36391
▁wide	-9.3655
▁crayons	-9.37706
▁ducks	-9.3771
▁rope	-9.3772
▁free	-9.38201
▁clouds	-9.38252
▁shining	-9.38591
▁clever	-9.38684
▁front	-9.38751
▁smelled	-9.38772
▁person	-9.38811
▁button	-9.3884
▁Jim	-9.39162
œI	-9.39641
▁loves	-9.39758
▁storm	-9.39785
▁spotted	-9.39884
▁snack	-9.39926
▁screamed	-9.39984
▁arm	-9.40295
▁fair	-9.4047
▁mud	-9.40521
▁coat	-9.40765
▁road	-9.4091
▁trouble	-9.41041
▁danced	-9.4118
▁spoon	-9.41652
▁which	-9.4174
▁appeared	-9.41903
▁Jake	-9.41978
▁snake	-9.42084
▁snowman	-9.42331
▁cup	-9.4255
▁patient	-9.43028
▁shop	-9.43273
▁asleep	-9.43312
▁lovely	-9.43446
▁path	-9.4347
▁horse	-9.43605
▁Together	-9.43816
▁wearing	-9.43998
▁Mittens	-9.44033
▁gently	-9.44107
▁bow	-9.44186
▁giant	-9.44298
▁goes	-9.44477
▁whole	-9.44669
▁corner	-9.4502
▁matter	-9.45608
▁answer	-9.45757
▁fruit	-9.45845
▁tries	-9.46253
▁confused	-9.46656
▁places	-9.47053
▁dirt	-9.47062
▁rolled	-9.47075
▁forgive	-9.47214
▁tasted	-9.47327
▁machine	-9.4776
▁rude	-9.48399
Come	-9.48496
▁king	-9.48516
▁phone	-9.48598
▁spent	-9.4864
▁teeth	-9.48723
▁ocean	-9.49244
▁oven	-9.49511
▁cookie	-9.49669
▁wild	-9.49799
▁spider	-9.5001
▁pretended	-9.50085
▁Lisa	-9.50122
▁furry	-9.50459
▁feet	-9.50487
▁problem	-9.51187
▁picnic	-9.51199
▁wave	-9.51398
▁throw	-9.51725
▁last	-9.52065
▁eventually	-9.52115
▁helpful	-9.52372
▁smell	-9.52568
▁zoo	-9.52935
▁drive	-9.53175
▁talking	-9.53212
▁T	-9.5327
▁village	-9.53502
▁tomorrow	-9.5372
▁ladder	-9.53914
▁faces	-9.53977
▁Peter	-9.54292
▁coin	-9.54321
▁cow	-9.54332
▁write	-9.54413
▁happen	-9.54476
▁building	-9.5475
▁couch	-9.5496
▁slow	-9.55093
▁push	-9.55229
▁trip	-9.5548
▁calm	-9.55601
▁part	-9.5569
▁fighting	-9.55729
▁Sometimes	-9.5581
▁wore	-9.5598
▁chased	-9.55999
▁fur	-9.561
▁call	-9.56108
▁blew	-9.5612
Good	-9.56597
▁knee	-9.56703
▁treats	-9.56779
▁puddle	-9.5688
▁hiding	-9.56986
▁pool	-9.57094
▁grab	-9.57124
▁waiting	-9.57336
▁shy	-9.57371
▁finish	-9.57635
▁shelf	-9.57714
▁bugs	-9.57975
▁whenever	-9.57998
▁mind	-9.58052
▁string	-9.58372
▁maybe	-9.58545
▁chocolate	-9.5867
▁taste	-9.5879
▁cannot	-9.58809
▁songs	-9.59119
▁Everywhere	-9.59352
▁sack	-9.59453
▁selfish	-9.59527
▁lay	-9.59827
▁Teddy	-9.59838
▁letter	-9.59879
▁large	-9.59961
▁stone	-9.59963
▁fixed	-9.60271
▁smooth	-9.6038
▁barked	-9.6042
Tim	-9.60477
▁carrot	-9.60874
▁leaf	-9.61008
▁count	-9.61387
▁plant	-9.6152
▁wash	-9.61586
▁spread	-9.6171
▁cloud	-9.62474
▁cloth	-9.62744
▁Please	-9.63054
▁color	-9.63085
▁jungle	-9.63091
▁missed	-9.6328
▁robot	-9.63341
▁forward	-9.63377
ex	-9.63541
▁hid	-9.63655
▁necklace	-9.63698
▁meet	-9.6391
▁landed	-9.63972
▁peaceful	-9.63987
▁creature	-9.64008
▁kiss	-9.64115
▁embarrassed	-9.64122
▁seat	-9.6421
▁jumping	-9.64429
▁tidy	-9.64613
▁neighbor	-9.64624
▁shirt	-9.65007
▁carry	-9.65012
My	-9.65373
▁land	-9.65376
▁tea	-9.65684
▁sharing	-9.65786
▁How	-9.65932
▁bus	-9.65951
▁creative	-9.66009
▁teach	-9.66065
▁knocked	-9.661
▁Even	-9.66275
▁Whil	-9.6643
▁stood	-9.6656
▁plate	-9.66562
▁bell	-9.66758
▁carrots	-9.66792
Please	-9.66988
▁tightly	-9.67171
▁hears	-9.67195
▁Little	-9.67236
▁almost	-9.67247
▁ashamed	-9.67247
▁sticks	-9.67451
▁gray	-9.67574
▁legs	-9.67639
▁grew	-9.67741
▁empty	-9.67887
▁whistle	-9.67954
▁splash	-9.68338
▁line	-9.685
▁moon	-9.68517
▁Mummy	-9.68681
▁protect	-9.68848
▁understood	-9.68987
▁meadow	-9.69042
▁Johnny	-9.69255
▁carried	-9.69297
▁save	-9.69356
▁meant	-9.69425
▁honest	-9.69445
▁yelled	-9.69637
▁Don	-9.69897
▁tells	-9.70069
▁sheep	-9.70078
▁Why	-9.703
▁disappointed	-9.7076
▁hours	-9.70873
▁nods	-9.7108
▁kitten	-9.71227
▁Alice	-9.71251
▁stand	-9.71289
▁bath	-9.71471
▁sparkly	-9.71664
▁breath	-9.71684
▁snacks	-9.71685
▁sail	-9.71962
▁these	-9.72036
▁hospital	-9.72189
▁crab	-9.72883
▁hidden	-9.73007
▁taught	-9.73071
▁bored	-9.73273
▁generous	-9.73307
▁mountain	-9.73342
▁standing	-9.73375
▁present	-9.73399
▁Leo	-9.73565
▁scarf	-9.73609
▁band	-9.73691
▁returned	-9.73889
▁minutes	-9.74167
▁easy	-9.74184
▁polite	-9.74202
▁bedroom	-9.74233
▁cook	-9.74471
▁sighed	-9.74524
▁knowing	-9.74628
▁mysterious	-9.74804
▁plants	-9.74914
▁prince	-9.74945
▁puzzle	-9.74994
John	-9.75048
▁wolf	-9.75053
▁waves	-9.7518
▁ant	-9.75473
▁determined	-9.75509
▁powerful	-9.75553
▁thankful	-9.7576
▁finger	-9.76007
▁sandwich	-9.76087
▁pizza	-9.76117
▁shore	-9.76145
▁passed	-9.7638
▁drew	-9.76425
▁sleepy	-9.76445
▁hop	-9.76673
▁frustrated	-9.76759
▁spicy	-9.76787
▁group	-9.76812
▁bridge	-9.76831
▁fancy	-9.7709
Stop	-9.77116
▁days	-9.77139
▁messy	-9.77185
▁gate	-9.77311
▁sour	-9.77445
▁kissed	-9.77613
▁worm	-9.77805
▁Mark	-9.7793
▁closet	-9.78011
▁ship	-9.78169
▁Susie	-9.78242
▁gathered	-9.78281
▁lock	-9.78665
▁poor	-9.78832
▁grumpy	-9.78987
▁yourself	-9.79154
Where	-9.79371
▁answered	-9.79562
▁ring	-9.79727
▁cries	-9.79754
▁often	-9.80064
▁chest	-9.8039
▁block	-9.80392
▁wood	-9.80548
▁scissors	-9.8057
▁hopping	-9.80572
▁tears	-9.80888
▁mummy	-9.81079
Sorry	-9.81452
▁ugly	-9.81454
▁caterpillar	-9.81742
▁deer	-9.81781
▁lit	-9.82159
▁excitement	-9.82199
Are	-9.82246
▁middle	-9.82417
▁expensive	-9.82443
▁working	-9.8245
Sam	-9.82486
▁saved	-9.82536
▁taken	-9.82676
▁ok	-9.82784
▁true	-9.83095
▁wagged	-9.83315
▁vase	-9.83432
▁pleased	-9.83554
▁pig	-9.83662
▁card	-9.83729
▁mail	-9.8381
▁leg	-9.83874
▁boring	-9.84125
▁mix	-9.8437
▁tie	-9.84533
▁net	-9.84595
▁asking	-9.84679
▁shell	-9.84985
▁mistake	-9.8507
▁cage	-9.85229
▁brush	-9.85243
▁spin	-9.85561
▁vegetables	-9.85574
▁giggled	-9.85595
▁nervous	-9.85649
▁rocket	-9.85677
▁roll	-9.86092
▁Go	-9.86217
▁comfortable	-9.86573
▁glass	-9.86598
▁sugar	-9.86616
▁packed	-9.86771
▁dancing	-9.86939
▁especially	-9.87029
▁picks	-9.87049
▁seek	-9.87091
itty	-9.87162
▁Today	-9.87165
▁police	-9.87564
▁O	-9.87726
▁pain	-9.87851
▁glue	-9.88069
▁medicine	-9.88074
▁Eventually	-9.8831
▁feed	-9.8846
▁lying	-9.8848
▁fake	-9.88683
▁Bobby	-9.8875
▁distance	-9.88801
▁sweetie	-9.88883
▁bone	-9.88964
▁drawing	-9.89166
▁fruits	-9.89194
▁eggs	-9.89237
▁bake	-9.89244
▁splashed	-9.8949
There	-9.89531
▁number	-9.89571
▁crown	-9.89605
▁become	-9.89729
▁change	-9.89809
▁moving	-9.89857
▁disappeared	-9.89957
▁lose	-9.90278
▁smelly	-9.90302
▁feathers	-9.90968
▁Some	-9.90998
▁licked	-9.91027
▁calling	-9.91117
▁If	-9.91207
▁roar	-9.91302
▁bathroom	-9.91467
▁playground	-9.91485
▁lazy	-9.91859
▁test	-9.91874
▁elderly	-9.92057
▁mirror	-9.92432
▁body	-9.92473
▁tent	-9.92531
▁wrote	-9.93089
▁nod	-9.93104
▁pay	-9.93321
▁walks	-9.93358
▁questions	-9.93367
▁noisy	-9.93448
▁father	-9.93558
▁tape	-9.93764
▁Pete	-9.94006
▁fluffy	-9.9408
▁skipped	-9.94094
▁gun	-9.94404
Who	-9.94483
▁match	-9.94681
▁respect	-9.94795
▁famous	-9.94899
▁fill	-9.94939
▁queen	-9.94953
▁ruined	-9.95045
▁rich	-9.95154
▁Mandy	-9.95269
▁drank	-9.95352
▁Ellie	-9.9562
▁eager	-9.95624
▁incredible	-9.95648
▁juicy	-9.95907
▁stones	-9.95962
▁live	-9.95995
▁covered	-9.96115
▁pillow	-9.9613
▁decide	-9.96215
▁lamp	-9.96288
▁sailed	-9.96315
▁flag	-9.96325
▁realised	-9.96931
▁rare	-9.96945
▁discovered	-9.9701
▁No	-9.9727
▁weak	-9.97605
ose	-9.9764
▁towel	-9.97726
▁zoom	-9.97854
▁joke	-9.98092
▁branches	-9.98366
▁cleaned	-9.98372
▁chicken	-9.98381
▁coins	-9.98385
▁tiger	-9.98425
▁ones	-9.98506
▁Ella	-9.98782
▁measure	-9.98889
▁balance	-9.98969
▁loyal	-9.98971
▁barn	-9.99029
▁adventurous	-9.99122
▁map	-9.99141
▁fine	-9.99257
▁offered	-9.99329
▁eye	-9.99451
▁clear	-9.99701
▁lifted	-9.99745
▁colourful	-9.99762
▁wheel	-9.99788
▁gets	-9.99973
▁bubbles	-10.0017
▁clown	-10.0025
▁dig	-10.0027
Now	-10.0033
Help	-10.0039
▁tag	-10.0048
▁bottom	-10.0063
▁cross	-10.0067
▁hose	-10.0077
▁organized	-10.0086
▁unique	-10.0089
▁happening	-10.009
▁difficult	-10.0119
▁shows	-10.0124
▁neck	-10.0131
▁butter	-10.0133
▁knife	-10.0138
▁Bella	-10.014
▁soap	-10.0158
▁pie	-10.0159
▁weird	-10.0164
▁word	-10.0179
▁Bobo	-10.0184
▁garage	-10.0187
▁board	-10.0193
▁Blue	-10.0207
▁managed	-10.0207
▁circle	-10.0244
▁jealous	-10.0266
▁crawled	-10.0285
▁wonder	-10.0285
▁learning	-10.0296
▁knight	-10.0305
▁chase	-10.0308
▁needs	-10.031
▁saying	-10.033
▁island	-10.0333
▁thin	-10.0336
▁kindness	-10.0341
▁berries	-10.0352
▁shake	-10.0353
▁edge	-10.0356
▁tough	-10.0357
▁once	-10.036
▁figure	-10.037
▁mighty	-10.0372
▁pointing	-10.0377
▁search	-10.0378
▁bald	-10.0379
▁content	-10.0384
▁End	-10.0391
▁Fred	-10.0397
▁wand	-10.0402
▁extra	-10.0409
▁kid	-10.0434
▁louder	-10.0441
▁added	-10.0449
▁dinosaur	-10.0452
▁favourite	-10.0454
▁Mrs	-10.0458
▁lift	-10.047
▁whale	-10.0472
▁spun	-10.0474
▁harder	-10.0477
▁drum	-10.0485
▁already	-10.0492
▁Tweety	-10.0499
▁unusual	-10.0543
▁smoke	-10.0548
▁enjoying	-10.0564
▁dizzy	-10.0564
▁balloons	-10.0567
▁thick	-10.0569
▁belonged	-10.0587
▁wrapped	-10.0606
▁foot	-10.0623
▁impressed	-10.0627
▁dogs	-10.0627
▁cheerful	-10.0651
▁giving	-10.0662
A	-10.0666
▁Grandpa	-10.0671
▁sword	-10.0671
▁guitar	-10.068
▁turtle	-10.07
▁normal	-10.0701
▁banana	-10.0709
▁balls	-10.0728
▁market	-10.0728
Lila	-10.0739
▁four	-10.0746
▁choose	-10.075
▁loudly	-10.0752
▁escape	-10.077
▁team	-10.0785
▁boxes	-10.0787
▁proudly	-10.0789
▁ears	-10.0798
▁yours	-10.0811
▁pen	-10.0824
▁check	-10.0824
▁bossy	-10.0843
▁dreamed	-10.0853
▁against	-10.0869
▁painting	-10.0872
▁invited	-10.0879
▁swan	-10.0897
▁circles	-10.09
▁hats	-10.0901
▁belong	-10.0905
▁miss	-10.0921
▁trunk	-10.0928
Well	-10.0932
▁brilliant	-10.0932
▁hurts	-10.0946
▁birdie	-10.0949
▁frightened	-10.0964
▁laughs	-10.0968
▁crayon	-10.0974
▁wake	-10.0986
▁step	-10.0994
▁safely	-10.0998
▁slipped	-10.1004
▁paw	-10.1025
▁valuable	-10.1029
▁log	-10.1042
Here	-10.1043
▁happiness	-10.1064
▁breakfast	-10.1065
▁sight	-10.1066
▁shout	-10.1066
▁ancient	-10.1077
▁successful	-10.1087
▁grown	-10.1089
▁clay	-10.1108
▁shape	-10.1125
▁buttons	-10.1136
▁fridge	-10.1142
▁skin	-10.1151
y	-10.1164
▁Nemo	-10.1168
▁movie	-10.1173
▁trucks	-10.1175
▁nicely	-10.1194
▁brothers	-10.1199
▁space	-10.12
▁clap	-10.121
▁ear	-10.1218
▁city	-10.1256
▁nosy	-10.1256
▁borrow	-10.1267
▁walls	-10.1274
▁stubborn	-10.1276
▁foolish	-10.128
▁delicate	-10.1281
▁office	-10.1282
▁Lola	-10.1286
▁grandpa	-10.1292
▁collect	-10.13
ly	-10.1303
▁falls	-10.1304
▁notice	-10.1318
▁wagon	-10.1319
▁rough	-10.1324
▁fat	-10.1336
▁icy	-10.1341
▁suggested	-10.135
▁kick	-10.1363
▁dead	-10.1376
▁exclaimed	-10.139
▁dreams	-10.139
▁mixed	-10.141
▁wiped	-10.1417
▁useful	-10.1424
▁My	-10.1428
▁poured	-10.143
▁stove	-10.1437
œLet	-10.1441
▁means	-10.1445
œ	-10.1453
▁horn	-10.1459
▁locked	-10.1466
▁sounded	-10.1477
▁excitedly	-10.1505
▁egg	-10.1506
▁tools	-10.1507
▁explored	-10.151
▁shells	-10.1524
im	-10.1529
▁fierce	-10.1545
▁son	-10.1552
▁goat	-10.1606
▁rose	-10.1611
▁trust	-10.1619
▁gold	-10.163
▁fountain	-10.1639
▁themselves	-10.1653
▁stumbled	-10.1661
▁bushes	-10.167
▁spoiled	-10.1682
▁showing	-10.1691
▁obedient	-10.1702
▁above	-10.171
▁clock	-10.1721
▁Ducky	-10.1727
▁lights	-10.173
▁smaller	-10.1741
▁witch	-10.1743
▁fragile	-10.1782
▁print	-10.1787
▁dependable	-10.1788
▁fingers	-10.1793
▁raced	-10.1798
▁playful	-10.1817
▁Whenever	-10.1817
▁dough	-10.1826
▁spinning	-10.1833
▁brightly	-10.1852
▁rode	-10.1853
▁practice	-10.1857
▁act	-10.1871
▁built	-10.188
▁admired	-10.1896
▁enormous	-10.19
▁thoughtful	-10.1903
▁kicked	-10.1919
▁counted	-10.1933
▁delighted	-10.1935
Me	-10.1946
▁changed	-10.1947
▁shone	-10.196
▁bags	-10.1964
▁jam	-10.1972
Be	-10.1977
▁reminded	-10.1982
▁aunt	-10.1986
▁Ann	-10.1996
▁jog	-10.2016
▁cone	-10.2035
▁Your	-10.205
▁Dave	-10.2053
▁using	-10.2057
▁solve	-10.2064
▁whispered	-10.2065
▁handed	-10.2069
▁bitter	-10.2082
▁chose	-10.2085
▁roof	-10.209
▁jolly	-10.2095
▁parrot	-10.2095
▁hero	-10.2105
▁independent	-10.2106
▁stronger	-10.2109
▁original	-10.2122
▁pass	-10.2127
▁tummy	-10.2129
▁sauce	-10.2131
▁pan	-10.2148
▁terrible	-10.2151
▁spend	-10.2157
▁popcorn	-10.2169
œYes	-10.2171
▁painted	-10.2174
▁allowed	-10.219
▁pencil	-10.2196
▁hairy	-10.22
▁finding	-10.2219
▁spray	-10.2237
▁wrap	-10.2238
▁Mike	-10.2239
▁scare	-10.224
▁cleaning	-10.2244
▁pumpkin	-10.2248
▁George	-10.225
▁scream	-10.2251
▁unknown	-10.2262
▁To	-10.2264
▁leaving	-10.2264
▁gasped	-10.227
▁joined	-10.2284
▁dove	-10.2284
▁hammer	-10.2286
▁bounce	-10.2291
▁shark	-10.2306
▁bees	-10.2312
▁Toby	-10.233
▁kinds	-10.2332
▁picking	-10.2336
▁metal	-10.2357
▁dolphin	-10.238
▁delight	-10.2387
▁reliable	-10.2395
▁those	-10.2418
▁zip	-10.242
▁yet	-10.2431
▁forth	-10.2439
▁advice	-10.2443
▁barber	-10.2443
▁cart	-10.2444
▁doesn	-10.245
▁power	-10.2461
▁pirate	-10.2472
▁modern	-10.2481
▁ow	-10.2484
▁beak	-10.249
▁create	-10.2493
▁salad	-10.2495
▁thinking	-10.2501
▁sink	-10.2511
▁week	-10.2542
▁knows	-10.2543
▁boys	-10.2547
▁clumsy	-10.2568
▁Bill	-10.2571
▁sleeping	-10.2573
▁serious	-10.2587
▁searching	-10.2588
▁wealthy	-10.2593
▁toast	-10.2596
▁yarn	-10.2599
▁rushed	-10.2605
▁cover	-10.2606
▁stupid	-10.2606
▁stairs	-10.2607
▁spaghetti	-10.2617
▁telling	-10.2623
▁guilty	-10.2624
▁view	-10.2634
▁camera	-10.2648
▁Bear	-10.2654
▁stream	-10.2659
œWhat	-10.2662
▁houses	-10.2663
▁goose	-10.2679
▁tank	-10.2698
▁holds	-10.2705
▁boats	-10.2721
▁hay	-10.2723
▁add	-10.2724
▁half	-10.2731
▁angel	-10.2754
▁patch	-10.2764
▁umbrella	-10.2785
▁prize	-10.2798
▁stage	-10.284
▁march	-10.2844
▁driving	-10.2855
▁crazy	-10.2859
▁meal	-10.2865
▁washed	-10.2869
▁carrying	-10.2872
▁engine	-10.2872
▁low	-10.2882
▁dull	-10.2883
▁ways	-10.29
▁Polly	-10.2901
▁missing	-10.2904
▁class	-10.2905
▁sparkled	-10.291
▁Sophie	-10.2931
▁hoop	-10.294
▁lemon	-10.2942
▁popular	-10.2943
▁flexible	-10.2947
▁graceful	-10.2948
▁impressive	-10.2948
▁jacket	-10.2948
▁tied	-10.2955
▁ending	-10.2962
▁library	-10.2967
▁regular	-10.2967
▁imagined	-10.2972
▁seeds	-10.2985
▁nature	-10.2996
œIt	-10.2996
▁rubbed	-10.3043
▁ingredients	-10.3047
▁truth	-10.3051
▁dreaming	-10.3053
▁shocked	-10.3054
▁corn	-10.3059
▁sudden	-10.3078
▁stranger	-10.3104
How	-10.3109
▁friendship	-10.3147
▁thirsty	-10.3151
▁Next	-10.3154
▁sadly	-10.3176
▁Joey	-10.3219
▁opens	-10.3219
▁reading	-10.322
▁mark	-10.3235
▁early	-10.3236
▁bracelet	-10.3255
▁peeked	-10.326
▁feather	-10.3269
▁penny	-10.3277
▁wheels	-10.3283
▁butterflies	-10.3285
▁Andy	-10.3285
▁careless	-10.3306
▁spilled	-10.3307
▁rat	-10.3319
▁rug	-10.3323
▁diamond	-10.3339
▁numbers	-10.3342
▁wing	-10.3349
▁flashlight	-10.3356
▁fresh	-10.336
▁humble	-10.3379
▁ahead	-10.3379
▁flute	-10.339
▁handle	-10.3395
▁chew	-10.3403
▁spoke	-10.3409
▁nut	-10.3414
▁bent	-10.3419
▁sunflower	-10.3426
▁gum	-10.3429
▁warned	-10.3435
▁scale	-10.3443
▁mailbox	-10.3449
▁sorts	-10.3453
Go	-10.3455
▁pale	-10.347
▁cheap	-10.3471
If	-10.3476
▁uncomfortable	-10.3477
▁placed	-10.3491
▁badly	-10.3511
▁statue	-10.3511
▁older	-10.3529
▁note	-10.353
See	-10.353
▁biggest	-10.3539
▁tunnel	-10.3542
▁beetle	-10.3558
▁Alex	-10.3567
▁guard	-10.3578
▁counting	-10.3588
▁growing	-10.3589
▁cupboard	-10.359
▁cooking	-10.3593
▁sofa	-10.3595
▁celebrate	-10.3607
▁nurse	-10.3612
▁mole	-10.3623
Ow	-10.363
old	-10.3632
▁desk	-10.364
▁value	-10.3654
▁towers	-10.3667
▁harmless	-10.3675
▁shoot	-10.3683
▁thunder	-10.3683
▁beauty	-10.3686
▁hang	-10.3689
▁crocodile	-10.3701
▁bull	-10.371
▁past	-10.3716
▁track	-10.3719
▁persistent	-10.3759
▁crane	-10.3774
▁gifted	-10.3785
▁charming	-10.3792
▁refused	-10.3794
▁helps	-10.3814
▁deaf	-10.3814
▁cereal	-10.3827
▁Give	-10.3837
▁slid	-10.3844
▁envelope	-10.3861
They	-10.3862
▁drop	-10.3864
▁pretending	-10.3872
▁stops	-10.3872
▁anxious	-10.3873
▁sandwiches	-10.3878
▁shut	-10.3885
▁raven	-10.389
▁snuggled	-10.3896
▁drawer	-10.3898
▁order	-10.3904
▁parade	-10.3904
▁ordinary	-10.3918
▁lead	-10.3921
▁computer	-10.3923
▁chasing	-10.3926
▁jelly	-10.3934
▁Paul	-10.3944
▁collar	-10.3944
▁flour	-10.3969
aid	-10.398
▁uncle	-10.3995
▁lively	-10.4001
▁rules	-10.4009
▁piano	-10.4011
▁trap	-10.4013
▁package	-10.4021
▁study	-10.4023
▁gloomy	-10.4032
▁sell	-10.405
▁intelligent	-10.4058
▁helmet	-10.4059
▁needle	-10.406
▁crystal	-10.4061
▁return	-10.4062
▁design	-10.4097
▁shaking	-10.4112
▁lizard	-10.4116
▁hung	-10.4152
He	-10.4156
▁pony	-10.4157
▁jumps	-10.416
▁octopus	-10.4167
Tommy	-10.4167
œThat	-10.417
▁twirled	-10.4174
▁zebra	-10.4182
▁soldier	-10.4183
▁station	-10.4183
▁hunter	-10.4186
▁alert	-10.4187
▁Look	-10.423
▁miserable	-10.423
▁thief	-10.4234
cream	-10.4236
▁slides	-10.428
▁anywhere	-10.4281
▁radio	-10.4285
▁dug	-10.4288
▁creatures	-10.4296
▁fireman	-10.4297
▁less	-10.4302
▁bandage	-10.4323
▁pack	-10.4338
▁screen	-10.4344
▁Before	-10.4351
▁wishes	-10.4353
▁names	-10.4366
▁seem	-10.438
▁ignorant	-10.438
Max	-10.4382
▁turkey	-10.4383
▁Brownie	-10.4396
▁spring	-10.44
▁shine	-10.4404
Give	-10.4412
▁chance	-10.4413
▁Grace	-10.4414
▁bounced	-10.442
▁courage	-10.4433
▁trash	-10.4435
▁lollipop	-10.4443
▁leash	-10.4445
▁stickers	-10.4454
▁practiced	-10.4457
▁blow	-10.4461
▁led	-10.4463
▁cube	-10.4466
▁suit	-10.4467
Yay	-10.4468
▁fan	-10.4476
▁pigeon	-10.4488
▁square	-10.4488
▁attractive	-10.4496
▁jet	-10.4498
▁hurry	-10.4507
▁pasta	-10.4516
▁stirred	-10.452
▁jeep	-10.4522
▁arrow	-10.4524
▁stretched	-10.4524
▁nobody	-10.4525
▁gem	-10.4529
ate	-10.4535
▁compassionate	-10.4537
▁chubby	-10.4538
▁Annie	-10.4569
▁carpet	-10.4571
▁decorate	-10.4583
▁helpless	-10.4585
▁respectful	-10.4598
▁cocoa	-10.4601
▁Tweetie	-10.4609
▁jug	-10.4615
▁brighter	-10.4617
▁competitive	-10.4626
▁ghost	-10.4627
▁seal	-10.4635
▁candle	-10.4636
▁Fin	-10.4641
▁letters	-10.4648
▁further	-10.4653
▁pressed	-10.4672
▁troubled	-10.4674
▁case	-10.4675
▁itself	-10.4685
▁afternoon	-10.4707
▁Jerry	-10.4708
▁attic	-10.4709
▁fear	-10.4727
Timmy	-10.4727
▁steps	-10.4728
▁skip	-10.4728
▁anyway	-10.4734
▁somewhere	-10.4755
▁mask	-10.4772
up	-10.48
▁bark	-10.4802
▁restless	-10.4804
▁adorable	-10.4806
▁disgusting	-10.4807
▁fearful	-10.4809
▁may	-10.4809
▁restaurant	-10.4816
▁pants	-10.4834
▁tray	-10.4837
▁giggle	-10.4845
▁Are	-10.4848
▁tool	-10.485
▁envious	-10.4857
▁Lee	-10.4862
▁sweetheart	-10.4862
▁broccoli	-10.487
▁distant	-10.4872
▁Where	-10.4891
▁shouts	-10.4894
▁impatient	-10.4895
▁filthy	-10.4899
▁shoe	-10.4906
▁nuts	-10.4916
▁fork	-10.4925
▁post	-10.4925
▁Here	-10.4925
▁cooked	-10.4937
▁crawl	-10.4939
▁Everything	-10.4957
▁soar	-10.497
▁scooter	-10.4976
▁belt	-10.4977
▁trumpet	-10.4979
▁sandbox	-10.4983
▁stir	-10.4983
▁pipe	-10.4987
▁cards	-10.4994
▁Charlie	-10.5001
▁guess	-10.5001
▁Lilly	-10.5015
▁admire	-10.5016
▁nowhere	-10.502
▁comb	-10.5022
▁starts	-10.5025
▁travel	-10.5025
▁pepper	-10.5032
▁cheer	-10.5035
▁thread	-10.5036
▁cap	-10.5071
▁bathtub	-10.5079
▁rub	-10.5091
▁leopard	-10.5092
▁question	-10.5093
▁dish	-10.5097
▁Would	-10.5097
▁quite	-10.5102
▁barking	-10.5103
▁squash	-10.5106
▁windows	-10.512
▁bicycle	-10.5123
▁lid	-10.5137
▁mama	-10.5141
▁mule	-10.5146
▁Henry	-10.5159
▁cricket	-10.5163
▁happier	-10.5166
▁message	-10.5186
▁ten	-10.5187
▁listening	-10.52
▁ants	-10.5205
▁monkeys	-10.5216
▁harsh	-10.5218
▁Maria	-10.5218
▁stared	-10.5231
▁record	-10.5256
▁sort	-10.5259
▁ostrich	-10.5261
year	-10.5264
▁club	-10.5264
▁gorilla	-10.5277
▁pour	-10.5285
▁cows	-10.5285
▁crack	-10.5287
▁given	-10.5287
▁relax	-10.5302
▁dessert	-10.5304
▁stretch	-10.5308
▁Millie	-10.5317
▁five	-10.5327
▁violin	-10.534
▁paid	-10.5346
▁size	-10.5361
▁yogurt	-10.5363
▁Baby	-10.5365
▁melon	-10.537
▁stuff	-10.5376
▁alligator	-10.5385
▁purse	-10.5393
▁shadow	-10.5394
▁enthusiastic	-10.5405
▁helicopter	-10.5409
▁split	-10.5412
▁grabs	-10.5414
▁wander	-10.5422
▁Sandy	-10.5423
▁Will	-10.5424
▁rescue	-10.5428
▁tripped	-10.543
▁jellyfish	-10.5433
▁vine	-10.5434
▁Bunny	-10.5439
▁Papa	-10.5448
▁perform	-10.545
▁hippo	-10.5457
▁pilot	-10.5458
▁shade	-10.5462
▁mug	-10.5469
▁object	-10.5473
▁modest	-10.5478
▁sent	-10.5478
▁sheet	-10.5481
▁otter	-10.5484
▁roared	-10.5492
▁forgave	-10.5494
▁summer	-10.5506
▁wheat	-10.5506
▁hook	-10.5524
▁behave	-10.554
▁paws	-10.5543
▁organize	-10.5549
▁heal	-10.5556
▁pushing	-10.5566
▁triangle	-10.5579
▁salt	-10.5585
▁swinging	-10.5589
▁Mimi	-10.5593
▁starting	-10.5604
▁yell	-10.5606
▁neat	-10.5612
▁lightning	-10.5614
▁taxi	-10.5625
▁rice	-10.5626
▁steal	-10.564
▁evening	-10.5645
Bye	-10.565
▁energy	-10.5664
▁pulls	-10.5678
▁Ted	-10.5681
▁Buddy	-10.5682
▁porch	-10.5696
▁bubble	-10.5697
▁wallet	-10.57
▁frowned	-10.57
▁sticker	-10.5701
▁reward	-10.5711
▁knot	-10.5714
▁either	-10.5715
▁raft	-10.5716
▁riding	-10.572
▁fold	-10.5723
▁panda	-10.5741
▁tomato	-10.5743
▁van	-10.576
▁rod	-10.5761
▁kangaroo	-10.5763
▁quick	-10.5764
▁sweater	-10.5764
▁tooth	-10.5772
▁Danny	-10.5781
▁ended	-10.5781
▁tire	-10.5783
▁Whiskers	-10.5805
▁send	-10.5806
▁shopkeeper	-10.5822
▁spirit	-10.5823
▁museum	-10.5826
▁cop	-10.5829
▁palace	-10.5834
▁peace	-10.5859
▁knock	-10.5864
▁strawberry	-10.5881
▁rolling	-10.5891
▁math	-10.5913
▁bananas	-10.5916
▁bikes	-10.5922
▁jokes	-10.5933
▁boots	-10.5934
▁sock	-10.5942
▁microphone	-10.5943
œYou	-10.5947
TMm	-10.5951
▁wire	-10.5965
▁pole	-10.5977
▁alive	-10.599
▁moms	-10.6004
▁reindeer	-10.601
▁hive	-10.6011
▁magnet	-10.6019
▁laundry	-10.6027
▁shakes	-10.6037
▁notebook	-10.604
▁holes	-10.604
▁cactus	-10.6058
▁mild	-10.6065
▁tube	-10.6068
▁ink	-10.607
▁pushes	-10.6072
▁sailor	-10.6072
▁Be	-10.6081
▁visited	-10.6082
▁softly	-10.6084
▁putting	-10.609
▁learnt	-10.6093
▁glow	-10.6102
▁trains	-10.6109
▁clapping	-10.6112
▁tricks	-10.612
▁leaned	-10.6133
▁penguin	-10.6138
▁dust	-10.6145
▁airport	-10.6146
▁zoomed	-10.6151
▁falling	-10.6156
▁shelter	-10.6167
▁colours	-10.6169
▁smells	-10.6181
▁pebble	-10.6183
▁speed	-10.6188
▁checked	-10.6195
▁stack	-10.6195
▁Harry	-10.6198
▁silver	-10.6199
▁judge	-10.6208
▁Tony	-10.6212
▁barrel	-10.6212
▁aeroplane	-10.6214
▁ambulance	-10.6216
▁steak	-10.6227
▁climbing	-10.6233
▁drawings	-10.6235
▁marched	-10.6236
▁chalk	-10.6239
▁dive	-10.6247
▁volcano	-10.6267
▁belongs	-10.6276
▁jewel	-10.6277
▁meat	-10.6277
▁goal	-10.6312
▁costume	-10.6313
▁dishes	-10.6313
▁polish	-10.6316
▁seed	-10.633
▁imagine	-10.6332
▁bin	-10.6342
▁lions	-10.6348
▁beep	-10.635
▁acorn	-10.6354
▁coffee	-10.6361
▁backpack	-10.6367
▁apologized	-10.6369
▁yacht	-10.6373
▁danger	-10.6376
▁soil	-10.6378
▁grapes	-10.6382
▁trophy	-10.6384
▁medal	-10.6386
▁elevator	-10.6387
▁barks	-10.6397
▁hadn	-10.6407
▁task	-10.6408
▁rubber	-10.6416
▁comfort	-10.6416
▁support	-10.6417
▁chain	-10.6418
▁Tweet	-10.6419
▁mushroom	-10.6419
▁papers	-10.6422
▁hoping	-10.6425
▁minute	-10.6426
▁cord	-10.6434
Mia	-10.6434
▁onion	-10.6444
▁eraser	-10.6446
▁unhappy	-10.645
▁page	-10.6453
▁mill	-10.6477
▁kitty	-10.648
▁wool	-10.6484
▁raining	-10.6491
▁journal	-10.6495
▁trick	-10.6495
▁haircut	-10.6499
▁celery	-10.6499
▁shield	-10.6504
▁available	-10.6506
▁complete	-10.6537
▁perfectly	-10.6538
▁drops	-10.654
▁basketball	-10.6546
▁speak	-10.6551
▁mechanic	-10.6552
▁twig	-10.6556
▁diary	-10.6556
▁flies	-10.6565
▁resist	-10.6566
▁planet	-10.6567
▁counter	-10.6591
▁player	-10.6598
▁glove	-10.6601
▁winter	-10.6602
▁closely	-10.6604
▁cardboard	-10.6607
▁shouldn	-10.6611
▁eagerly	-10.6634
▁quit	-10.6645
▁tap	-10.6645
▁Smith	-10.6657
▁baking	-10.6668
▁comet	-10.6686
▁twist	-10.6687
▁marry	-10.6695
▁cooler	-10.6701
▁fields	-10.6703
▁repair	-10.6714
▁James	-10.6715
▁loop	-10.6716
▁pair	-10.6719
▁furniture	-10.6723
▁stuffed	-10.6729
▁second	-10.6751
▁church	-10.6756
ting	-10.6761
▁shrimp	-10.6772
▁wife	-10.6792
▁headed	-10.6805
▁lie	-10.6818
▁switch	-10.6855
▁football	-10.6869
▁motorcycle	-10.688
▁between	-10.6881
▁Instead	-10.6887
ve	-10.69
▁peek	-10.6903
▁flame	-10.6911
▁swung	-10.6921
▁thanks	-10.6923
▁factory	-10.6926
▁Clara	-10.6937
▁mixer	-10.6943
▁rag	-10.6958
▁hotel	-10.6964
▁Pat	-10.6973
▁gather	-10.6979
▁vendor	-10.6988
▁folder	-10.6988
▁video	-10.6994
▁shouting	-10.7
▁cats	-10.7018
▁peach	-10.7021
▁unlock	-10.7028
▁blowing	-10.7028
▁human	-10.7049
▁cauliflower	-10.7054
▁frame	-10.7058
▁coal	-10.7067
▁skull	-10.7073
▁pin	-10.7084
▁cushion	-10.7084
▁oil	-10.7093
▁treasures	-10.7095
▁breaks	-10.7097
▁created	-10.7097
▁potato	-10.7109
▁hut	-10.7113
▁spell	-10.712
▁sunset	-10.7125
▁seeing	-10.7126
▁maze	-10.7128
▁explain	-10.7131
▁wipe	-10.7131
▁Maggie	-10.7139
▁soccer	-10.7155
▁fisherman	-10.716
▁cups	-10.7169
▁pit	-10.7179
Your	-10.7188
▁pirates	-10.7189
▁laser	-10.719
▁popped	-10.7209
▁powder	-10.722
▁painter	-10.7222
▁stamp	-10.7231
▁attention	-10.7236
▁peanut	-10.7241
▁battery	-10.7244
▁photo	-10.7259
▁poke	-10.7271
▁forgotten	-10.7271
▁weather	-10.7274
▁Or	-10.7275
osie	-10.7275
▁mop	-10.7282
▁celebrated	-10.729
▁throws	-10.7297
▁God	-10.7305
▁fishing	-10.7307
▁giraffe	-10.7309
▁yoga	-10.7328
▁flea	-10.7339
▁waving	-10.734
▁slept	-10.7349
Molly	-10.7363
▁anchor	-10.7365
▁axe	-10.7366
▁tutor	-10.7369
▁deliver	-10.7373
▁Bun	-10.7376
▁point	-10.7381
▁breeze	-10.7388
▁fireplace	-10.7392
▁swamp	-10.7397
▁frogs	-10.7402
▁bloom	-10.7403
▁golf	-10.7406
▁lives	-10.7418
▁vet	-10.7423
▁imagination	-10.7425
▁glowing	-10.7451
▁curtain	-10.746
▁lend	-10.7467
▁points	-10.7482
Mama	-10.7486
▁horses	-10.7488
▁ceiling	-10.7492
▁kingdom	-10.7495
▁sunglasses	-10.7495
▁memories	-10.7498
▁strength	-10.7508
▁dancer	-10.7508
▁tuna	-10.7512
▁parent	-10.7512
▁rhinoceros	-10.7516
▁cabin	-10.7538
▁fog	-10.7542
▁petals	-10.7554
▁skeleton	-10.7562
▁baseball	-10.7569
▁dear	-10.7591
▁greedy	-10.7593
▁cable	-10.7595
▁pine	-10.7597
▁knob	-10.76
▁hockey	-10.7602
▁igloo	-10.761
▁sir	-10.7612
▁True	-10.7614
▁E	-10.7616
▁napkin	-10.762
▁feelings	-10.7625
▁skirt	-10.7644
▁hedge	-10.7646
▁sniffed	-10.7646
▁argue	-10.7652
▁temple	-10.767
▁bulb	-10.7679
▁golden	-10.7687
▁hanging	-10.7705
▁chickens	-10.7712
▁Miss	-10.7713
▁shovel	-10.7716
▁mistakes	-10.7717
▁film	-10.7727
▁bears	-10.7737
▁staff	-10.7737
▁zipper	-10.7742
▁shoulder	-10.7745
▁theater	-10.7751
▁meeting	-10.7753
▁microscope	-10.7755
▁eaten	-10.778
Jack	-10.7781
▁welcomed	-10.7809
▁quietly	-10.7814
▁pup	-10.7823
▁motor	-10.7836
Mum	-10.7837
▁gas	-10.7838
▁flapped	-10.7851
▁slippery	-10.7855
▁accepted	-10.7858
▁fought	-10.7858
▁pear	-10.7866
▁radish	-10.7883
▁plastic	-10.7886
▁throwing	-10.7891
▁marble	-10.79
▁bouncing	-10.7901
▁kayak	-10.7903
▁avocado	-10.7916
▁lime	-10.7926
▁creek	-10.7926
▁vroom	-10.7932
▁lotion	-10.7933
▁agree	-10.7955
▁sticky	-10.7955
▁freezer	-10.797
▁armchair	-10.7996
▁success	-10.8005
▁iron	-10.8025
▁First	-10.8032
▁writing	-10.8038
▁faucet	-10.804
▁cared	-10.8041
▁Tina	-10.8048
▁heads	-10.8052
▁reef	-10.8082
▁vest	-10.8098
▁mystery	-10.8099
▁tug	-10.8104
▁makeup	-10.8104
▁oyster	-10.8105
▁investigate	-10.8106
▁calls	-10.8118
▁sailing	-10.812
▁cherries	-10.8126
▁squirrels	-10.8134
▁discover	-10.8134
▁ticket	-10.8135
▁crib	-10.8141
▁mattress	-10.8145
▁magazine	-10.8162
▁splashing	-10.8191
▁rake	-10.8197
▁offer	-10.8197
▁collected	-10.8202
▁chimney	-10.8205
▁quarrel	-10.8209
▁separate	-10.8213
▁pistol	-10.8217
▁dishwasher	-10.8221
▁trail	-10.8224
▁sprayed	-10.823
▁alarm	-10.8243
▁wags	-10.8244
▁toilet	-10.8246
▁tub	-10.8247
▁veil	-10.8268
▁pray	-10.8269
▁entered	-10.8277
▁finds	-10.8285
▁shrugged	-10.829
▁scolded	-10.8308
▁tear	-10.831
▁worth	-10.8315
▁Dan	-10.8333
▁lawyer	-10.8342
▁poem	-10.8357
▁choice	-10.8368
ach	-10.8389
▁mosquito	-10.84
▁hall	-10.8404
▁ignored	-10.8405
▁tucked	-10.8405
▁presents	-10.8412
▁pattern	-10.842
▁since	-10.8433
▁cane	-10.8444
▁kisses	-10.8458
▁classroom	-10.846
▁trade	-10.8461
▁happens	-10.8461
▁nail	-10.8466
▁musician	-10.8467
▁easily	-10.8482
▁burn	-10.8488
▁Freddy	-10.8506
▁beef	-10.8512
▁burned	-10.8518
▁language	-10.8522
▁disappear	-10.8532
▁country	-10.8544
Wait	-10.8548
▁chess	-10.855
▁bean	-10.8555
▁candles	-10.8558
▁pill	-10.8578
▁trusted	-10.8585
▁rise	-10.8585
▁dressed	-10.8591
▁missile	-10.8595
▁short	-10.8595
▁shower	-10.8595
▁veterinarian	-10.86
▁wardrobe	-10.8601
▁telephone	-10.8617
▁accept	-10.862
▁cabinet	-10.8621
▁jewelry	-10.8641
▁blinked	-10.8642
▁moves	-10.8643
▁newspaper	-10.8657
uby	-10.8667
▁stable	-10.8676
▁caring	-10.8678
▁luck	-10.8681
▁sizes	-10.8682
▁keeping	-10.8686
▁crossed	-10.8691
▁blouse	-10.8693
▁oak	-10.8695
▁opera	-10.8703
▁However	-10.8703
▁puddles	-10.871
▁hopes	-10.8722
▁coats	-10.8723
▁display	-10.8731
▁claws	-10.8732
▁bookcase	-10.8735
▁follows	-10.8766
▁unpack	-10.8777
▁blankets	-10.8795
n	-10.8796
▁lawn	-10.8801
▁Milly	-10.8814
▁blueberries	-10.8821
▁amazement	-10.8828
▁lab	-10.8831
▁valley	-10.8837
▁perfume	-10.8842
▁squeezed	-10.8848
▁bookshelf	-10.8861
▁tornado	-10.8864
▁castles	-10.887
▁razor	-10.8872
er	-10.8874
▁subway	-10.8875
▁chairs	-10.8877
▁apart	-10.8885
▁uniform	-10.8891
▁file	-10.8893
▁straight	-10.8914
▁earth	-10.8916
▁squeeze	-10.8918
▁spear	-10.8921
▁planes	-10.8929
▁television	-10.8935
▁puzzles	-10.8935
▁crawling	-10.8953
▁experience	-10.8959
▁poked	-10.8965
▁symbol	-10.8971
▁serve	-10.8989
▁following	-10.899
▁mint	-10.8992
▁shampoo	-10.8996
▁melt	-10.8999
▁spark	-10.9008
▁ribbon	-10.9029
▁licks	-10.9039
▁pinch	-10.9048
▁muffin	-10.9053
▁helper	-10.9056
▁gym	-10.9059
▁cliff	-10.9063
▁ringing	-10.9066
atie	-10.9069
▁mustache	-10.9097
▁immediately	-10.9105
▁sneeze	-10.9122
▁shrink	-10.9143
▁growled	-10.9148
▁invite	-10.9148
▁begged	-10.9152
▁dictionary	-10.9154
▁gear	-10.9159
▁grill	-10.9163
▁matches	-10.9169
▁birdcage	-10.9175
▁warmth	-10.9186
▁Snowy	-10.9186
These	-10.9225
▁People	-10.9229
▁attach	-10.9232
▁fuel	-10.9232
▁drain	-10.9246
▁alright	-10.9248
▁ignore	-10.9262
▁calendar	-10.9263
▁yucky	-10.9282
▁blood	-10.9296
▁Luckily	-10.9296
▁fallen	-10.9299
▁married	-10.9304
▁berry	-10.9329
▁doors	-10.9339
▁pastry	-10.9345
▁novel	-10.9349
▁improve	-10.9364
▁below	-10.9382
▁mist	-10.939
▁bravely	-10.9394
▁oasis	-10.9395
▁wandered	-10.9408
And	-10.9416
▁laughter	-10.9433
▁whip	-10.9442
▁understanding	-10.9444
▁weigh	-10.9451
▁exam	-10.9465
▁hurting	-10.9466
▁apron	-10.947
▁Help	-10.9479
▁bathe	-10.9513
œNo	-10.9514
▁buckle	-10.9515
▁root	-10.9523
▁reaches	-10.9534
▁waste	-10.9536
▁safety	-10.9541
▁pages	-10.9545
▁bury	-10.9547
▁sandcastle	-10.9548
▁Ollie	-10.9551
▁crash	-10.9552
▁buried	-10.9561
▁worms	-10.9575
▁captain	-10.9584
▁reverse	-10.9588
▁spade	-10.9589
▁strawberries	-10.9591
▁myself	-10.9596
achel	-10.9596
▁relaxed	-10.96
Because	-10.9628
▁holiday	-10.9631
▁skills	-10.9644
Did	-10.9644
▁festival	-10.9648
▁quiz	-10.9654
▁ashtray	-10.9692
▁raise	-10.97
▁ornament	-10.9701
TMre	-10.9726
▁beamed	-10.9733
▁snapped	-10.9741
▁teaching	-10.9747
▁junk	-10.9752
▁someday	-10.9761
▁refrigerator	-10.9769
▁received	-10.9778
▁model	-10.9782
▁saving	-10.9786
▁Everyday	-10.9801
▁earlier	-10.9804
▁harbor	-10.9825
▁screw	-10.9835
▁Betsy	-10.9857
▁steam	-10.9861
▁rot	-10.9863
▁plates	-10.9873
▁hearts	-10.9876
▁isn	-10.9878
▁sparkling	-10.9885
▁insisted	-10.9902
▁vanished	-10.9906
▁bumped	-10.9925
eady	-10.9935
▁Buzz	-10.9945
▁insect	-10.9949
▁blackboard	-10.9954
▁load	-10.9967
▁dried	-10.9968
▁enter	-10.9974
▁Steve	-10.9987
▁sparkle	-10.9988
▁prepare	-10.9998
TMll	-11.0002
▁Joy	-11.0008
▁breathe	-11.0008
▁cell	-11.0014
▁spending	-11.002
▁boot	-11.0024
▁socks	-11.0026
▁scattered	-11.003
▁remove	-11.0042
▁scooped	-11.0043
▁settled	-11.0045
▁permission	-11.0047
Yuck	-11.0055
▁bathrobe	-11.0061
▁tease	-11.0073
▁known	-11.0078
▁yawned	-11.0082
a	-11.0091
▁Penny	-11.0092
▁jewels	-11.0095
ver	-11.0104
ups	-11.0112
▁destroyed	-11.0114
▁waffle	-11.0118
▁lumber	-11.013
▁hanger	-11.0136
▁Abigail	-11.0138
▁toes	-11.0146
▁encouraged	-11.0168
▁jail	-11.0173
▁pride	-11.0178
▁lemonade	-11.0187
▁Have	-11.0211
▁license	-11.0212
▁pulling	-11.022
▁decorations	-11.0236
▁hate	-11.0239
▁cuddled	-11.025
▁daisy	-11.0274
▁ha	-11.0291
▁Poppy	-11.0299
▁surprises	-11.0303
▁See	-11.0313
▁moments	-11.0316
▁prevent	-11.0318
▁praised	-11.0347
▁chirping	-11.0358
▁cartoon	-11.036
▁automobile	-11.0371
▁snap	-11.0373
▁beans	-11.0375
▁appreciate	-11.038
▁fastest	-11.0387
▁buzzing	-11.0391
▁patiently	-11.0396
▁billboard	-11.0401
▁dresses	-11.0403
▁spots	-11.0412
▁nation	-11.0416
▁provide	-11.0416
▁superhero	-11.0421
▁wizard	-11.0444
▁destination	-11.0445
▁poppy	-11.0445
▁spoil	-11.0448
▁taller	-11.0453
▁chamber	-11.0456
▁structure	-11.0458
▁shot	-11.0466
▁Brown	-11.0484
▁dare	-11.0499
▁mall	-11.0508
▁whisper	-11.0511
▁washing	-11.0521
▁rail	-11.0527
▁replace	-11.0534
▁passport	-11.0534
h	-11.0541
▁rabbits	-11.0541
▁digging	-11.0545
▁approached	-11.0552
▁wine	-11.0553
▁believed	-11.0553
▁score	-11.0556
oe	-11.0564
▁May	-11.0577
▁mitten	-11.0578
▁none	-11.0584
▁sausage	-11.059
▁cobweb	-11.0591
▁deeper	-11.0593
▁label	-11.06
▁infant	-11.0607
▁heat	-11.061
▁restore	-11.061
▁tongue	-11.0614
▁surrender	-11.064
▁law	-11.0656
▁struggling	-11.0664
▁vacation	-11.067
▁war	-11.068
▁cheek	-11.0681
Thanks	-11.0685
▁hurricane	-11.0692
Welcome	-11.0703
▁warning	-11.0716
▁sneezed	-11.0722
▁David	-11.0727
▁panic	-11.074
▁press	-11.0741
▁examine	-11.0745
▁supply	-11.0746
▁upstairs	-11.0748
▁thrilled	-11.075
and	-11.0757
▁brain	-11.0766
▁universe	-11.077
▁sits	-11.0776
▁twisted	-11.0783
▁glowed	-11.0787
▁port	-11.0789
▁hits	-11.0793
▁worse	-11.0796
▁awe	-11.0802
▁setting	-11.0812
▁solved	-11.0839
▁ideas	-11.0843
▁airplane	-11.0845
▁camp	-11.086
▁succeed	-11.0864
▁Spike	-11.0892
▁pillows	-11.09
▁remained	-11.0904
Ok	-11.0909
▁thermometer	-11.0921
▁shooting	-11.0935
▁neighborhood	-11.0948
Jimmy	-11.0948
▁chores	-11.0953
▁floated	-11.0962
▁ranch	-11.0963
ray	-11.0974
▁sparkles	-11.1002
▁university	-11.1033
▁Who	-11.1043
▁remind	-11.106
▁dur	-11.1064
▁massage	-11.1072
▁thumb	-11.1073
▁floating	-11.109
▁Jo	-11.1104
▁measured	-11.1106
▁stadium	-11.111
▁fixing	-11.1114
▁grinned	-11.1119
▁parts	-11.1139
▁surrounded	-11.114
▁supposed	-11.1146
▁batter	-11.1149
▁weeks	-11.115
nfortunately	-11.1152
▁paused	-11.1166
▁cherry	-11.117
▁collection	-11.1175
▁remain	-11.1187
▁leak	-11.119
▁future	-11.1211
▁sprinkles	-11.1213
emember	-11.1215
▁tide	-11.1215
▁observe	-11.1216
▁memory	-11.1221
▁grey	-11.1235
▁shed	-11.1253
▁sunrise	-11.127
▁jazz	-11.1271
▁vehicle	-11.1272
▁wisdom	-11.1302
▁actually	-11.1303
▁discovery	-11.1319
▁climbs	-11.1334
▁Liz	-11.1346
▁palm	-11.1349
▁marbles	-11.1354
▁urge	-11.1363
▁exercise	-11.1383
▁gust	-11.1396
▁oranges	-11.1415
▁meowed	-11.142
▁decision	-11.1425
▁neighbour	-11.1434
▁accident	-11.1437
▁weapon	-11.1443
Mmm	-11.1454
▁lily	-11.1463
▁rush	-11.1484
▁mailman	-11.1484
▁unite	-11.1491
▁chewed	-11.1492
▁luggage	-11.1494
▁hills	-11.1523
▁paints	-11.1565
▁tomatoes	-11.1565
▁possible	-11.1582
emy	-11.1594
▁sip	-11.1596
▁brings	-11.1598
▁delay	-11.161
▁rooms	-11.1613
▁gifts	-11.1615
▁rhythm	-11.1615
▁cartoons	-11.1627
▁destroy	-11.1628
▁sunlight	-11.1628
▁scratch	-11.1632
▁yield	-11.1638
▁folded	-11.164
▁teaspoon	-11.1642
▁curled	-11.1645
▁mineral	-11.1646
▁bites	-11.1648
▁chirped	-11.1655
▁shiver	-11.1657
▁melted	-11.1659
▁difference	-11.1674
▁x	-11.168
▁collecting	-11.1683
▁Someone	-11.1704
▁manage	-11.1707
▁keeper	-11.1707
▁firework	-11.172
▁itch	-11.1743
▁signs	-11.1758
▁jogging	-11.1765
▁tour	-11.1782
▁beside	-11.1809
▁safari	-11.1815
▁sliding	-11.1816
▁grape	-11.1821
▁receive	-11.1822
▁complain	-11.1826
▁equipment	-11.1829
▁laid	-11.1831
▁art	-11.1838
Mummy	-11.1847
▁elephants	-11.1887
▁copper	-11.1895
▁watered	-11.1897
▁tracks	-11.1907
ncle	-11.191
▁skipping	-11.1912
▁petted	-11.1912
▁potatoes	-11.1916
▁kindly	-11.1924
▁slice	-11.1926
▁bricks	-11.1927
▁continue	-11.1942
▁admiring	-11.1975
▁patterns	-11.1996
▁Luna	-11.2
Ha	-11.2005
▁twigs	-11.2007
▁ordered	-11.2017
▁overjoyed	-11.2029
▁eagle	-11.2042
▁gotten	-11.2045
▁watches	-11.2049
▁torn	-11.2053
▁zipped	-11.2063
▁mountains	-11.2064
▁soldiers	-11.2068
œThank	-11.2074
▁gloves	-11.2082
▁problems	-11.2085
▁whistling	-11.2093
▁Cat	-11.2125
▁invitation	-11.2129
▁colour	-11.2137
▁prayed	-11.214
▁network	-11.2167
▁peered	-11.2169
▁stomach	-11.2169
▁Moral	-11.2173
▁strangers	-11.2175
▁marching	-11.2198
▁seats	-11.2223
▁wooden	-11.2225
▁repeat	-11.2237
▁sidewalk	-11.2237
▁twirl	-11.2244
▁grocery	-11.2257
▁doggy	-11.2257
r	-11.227
▁navy	-11.227
▁pigs	-11.2276
▁attached	-11.2281
▁disagreed	-11.2291
▁raised	-11.2292
▁Julie	-11.2335
se	-11.2341
▁company	-11.2343
▁bother	-11.2362
▁mister	-11.2382
▁burning	-11.2386
▁acorns	-11.2388
▁Beth	-11.2406
▁onwards	-11.2414
▁sold	-11.2414
▁happiest	-11.2431
▁Suzy	-11.2431
▁lands	-11.2432
▁racing	-11.2439
▁float	-11.2444
▁operation	-11.2453
Jill	-11.2458
▁ash	-11.2462
▁Sunny	-11.2471
▁crashed	-11.2471
▁fed	-11.2477
seek	-11.2479
▁crunchy	-11.2484
eally	-11.2486
▁officer	-11.2487
▁Sharing	-11.2493
▁brick	-11.251
▁whistled	-11.2524
▁Thomas	-11.2543
▁poison	-11.2554
▁prune	-11.256
Bob	-11.2575
▁Chloe	-11.2577
▁refreshed	-11.2585
Would	-11.2587
▁menu	-11.2589
▁clearing	-11.2606
▁prepared	-11.2614
▁scratched	-11.2617
▁history	-11.2618
▁bowed	-11.2622
▁peanuts	-11.2627
▁olive	-11.2641
▁escaped	-11.2644
▁gain	-11.2659
œWe	-11.2661
▁planted	-11.2668
Ouch	-11.2678
▁lips	-11.2679
▁reminder	-11.2683
▁revealed	-11.2685
▁easier	-11.2689
▁fireworks	-11.2704
▁row	-11.2708
▁comfy	-11.2709
▁turning	-11.2709
▁brand	-11.2716
▁drinks	-11.2722
▁bye	-11.2752
▁hated	-11.2758
▁selling	-11.2764
▁recognized	-11.2776
▁price	-11.2777
▁sore	-11.2785
▁crept	-11.2789
▁precious	-11.2796
▁landscape	-11.2816
▁pies	-11.2819
▁Sure	-11.2822
▁Sadly	-11.2828
▁weren	-11.2833
▁settle	-11.2845
▁earthquake	-11.2851
▁muddy	-11.2853
▁By	-11.2862
▁drinking	-11.287
▁dinosaurs	-11.2871
▁scatter	-11.288
▁spoons	-11.289
▁screams	-11.2898
▁slip	-11.2898
▁flood	-11.2946
▁bridges	-11.2949
▁Sunday	-11.2963
▁spaceship	-11.2969
▁apologize	-11.2975
▁measuring	-11.2978
▁perched	-11.2989
▁served	-11.3018
▁herb	-11.3018
▁cuddle	-11.3032
▁buildings	-11.3035
▁request	-11.3036
▁event	-11.3072
œCan	-11.3091
▁Josh	-11.3092
▁tip	-11.3101
▁everyday	-11.3122
▁surf	-11.3123
▁comforted	-11.3129
▁agreement	-11.3129
▁responsible	-11.3132
▁bang	-11.3135
▁circus	-11.3136
▁rained	-11.3154
▁velvet	-11.3165
▁soared	-11.3173
▁anytime	-11.3175
▁disturb	-11.3176
▁trapped	-11.3179
▁cutting	-11.3188
▁beat	-11.3197
▁whatever	-11.3199
▁sneak	-11.3202
▁shadows	-11.3204
▁cakes	-11.3207
▁hurried	-11.3209
▁Jamie	-11.3209
▁succeeded	-11.3221
▁shopping	-11.3222
▁Frank	-11.3224
Billy	-11.3234
▁printer	-11.3271
▁disturbed	-11.3273
▁bones	-11.3275
▁wonders	-11.329
▁pitch	-11.3293
▁weight	-11.3295
▁remembers	-11.3297
▁style	-11.3303
▁traffic	-11.3332
▁steel	-11.3335
▁practicing	-11.3337
▁items	-11.3337
▁rang	-11.3341
TM	-11.335
▁punish	-11.335
▁bringing	-11.3356
▁exactly	-11.3365
▁oats	-11.3396
▁rested	-11.3401
▁visiting	-11.3405
▁simple	-11.3413
▁For	-11.343
Will	-11.3436
abbit	-11.3447
▁recognize	-11.3449
p	-11.3464
▁Anne	-11.3495
▁brushed	-11.3505
▁soak	-11.3533
▁costumes	-11.3553
▁olives	-11.3554
▁curiosity	-11.3554
▁tastes	-11.3577
▁image	-11.3587
▁breaking	-11.3588
▁waist	-11.3603
▁Nina	-11.3607
▁owned	-11.3621
Dad	-11.363
▁fascinated	-11.364
▁knelt	-11.364
▁leather	-11.3655
œDon	-11.3656
▁weep	-11.3657
▁creation	-11.3662
▁villagers	-11.3666
▁beneath	-11.3669
▁Coco	-11.367
▁underground	-11.3671
▁sadness	-11.3694
▁sings	-11.3696
▁Lucky	-11.37
▁Floppy	-11.3707
▁unlocked	-11.3711
oom	-11.3713
▁died	-11.3716
▁downstairs	-11.3721
▁Big	-11.3723
▁grandmother	-11.3733
▁oxygen	-11.3743
▁catching	-11.3751
▁tremble	-11.3761
▁waffles	-11.3765
▁secrets	-11.3771
Spot	-11.3782
▁nails	-11.3783
▁cape	-11.3784
▁Hop	-11.3785
▁Nutty	-11.3799
▁news	-11.3828
▁mission	-11.3838
nâ	-11.3841
▁jogged	-11.3842
▁ours	-11.3844
▁suffer	-11.385
▁frown	-11.3852
▁freeze	-11.3855
▁answers	-11.386
▁stripes	-11.3861
▁pets	-11.3868
▁Claire	-11.3882
▁soaring	-11.389
▁blueberry	-11.3899
▁Something	-11.3906
▁struggled	-11.3917
▁lecture	-11.3925
▁bleeding	-11.3943
▁punished	-11.3945
▁wondering	-11.3947
▁gained	-11.3963
▁wanting	-11.3981
▁Pip	-11.3982
▁fetch	-11.3987
▁wreck	-11.4001
▁examined	-11.4005
▁nicer	-11.401
▁planned	-11.4022
▁guessed	-11.4022
▁challenge	-11.4027
▁increase	-11.4035
▁area	-11.4042
▁Tiny	-11.4055
▁stealing	-11.4058
▁argued	-11.4062
▁stirring	-11.4072
She	-11.4073
▁tune	-11.4086
▁ripped	-11.411
▁lemons	-11.4111
▁tugged	-11.4138
▁Betty	-11.4139
▁studied	-11.4144
▁sisters	-11.4148
▁herbs	-11.415
▁firemen	-11.415
▁Tilly	-11.4163
▁wagging	-11.4171
▁zooming	-11.4179
▁victory	-11.4193
▁satisfied	-11.4199
▁winning	-11.4217
▁yawn	-11.422
▁mouths	-11.4225
▁properly	-11.4228
looking	-11.423
▁shivering	-11.4253
▁bunnies	-11.4262
▁gathering	-11.4267
▁winner	-11.4268
Daddy	-11.4284
▁exit	-11.4291
▁mice	-11.4301
▁vegetable	-11.4311
▁outdoors	-11.4326
▁accidents	-11.4331
▁twirling	-11.4354
▁discuss	-11.4359
▁slapped	-11.4367
▁loaded	-11.4368
▁teasing	-11.4369
▁budge	-11.4386
▁decorated	-11.4386
▁supplies	-11.4394
▁yelling	-11.4401
▁neighbourhood	-11.4406
▁competition	-11.4413
▁underneath	-11.4413
▁permit	-11.4416
▁Chirpy	-11.4453
▁introduce	-11.4453
▁Hannah	-11.4462
▁Jessie	-11.4464
▁pancakes	-11.4464
▁six	-11.4466
▁bump	-11.447
▁contain	-11.4472
▁machines	-11.4492
▁works	-11.4503
▁peaches	-11.4507
▁Lulu	-11.4509
Little	-11.4517
▁appear	-11.4524
▁mixing	-11.4525
▁released	-11.4539
▁weighed	-11.4546
▁zero	-11.4553
▁tickets	-11.4554
▁realize	-11.4559
▁sneaked	-11.4571
▁piles	-11.4578
▁Susan	-11.4579
▁fashion	-11.4583
▁doctors	-11.4583
▁monsters	-11.4589
▁sights	-11.4627
▁instructions	-11.4634
▁Bubbles	-11.4642
▁bunch	-11.4655
▁burrow	-11.4677
▁regret	-11.4687
▁release	-11.4688
▁ruler	-11.4716
▁pinched	-11.4718
Yum	-11.4721
▁pedal	-11.4727
▁Adam	-11.4728
▁Abby	-11.4747
▁printed	-11.4751
▁studying	-11.476
▁waits	-11.4764
▁struck	-11.4783
▁baked	-11.4784
▁lets	-11.4794
œLook	-11.4799
▁muffins	-11.4799
▁Did	-11.4807
▁strip	-11.481
out	-11.4812
▁frosting	-11.4815
▁sport	-11.4818
▁pastel	-11.4818
▁Like	-11.4825
▁keys	-11.4845
▁giggling	-11.4854
▁ourselves	-11.4871
▁sigh	-11.4896
▁beds	-11.4897
Not	-11.4915
▁shoulders	-11.493
œHello	-11.4939
▁scurried	-11.4992
▁unicorn	-11.4996
▁surface	-11.5025
Happy	-11.5026
▁prunes	-11.5038
▁Carl	-11.5042
▁control	-11.5045
▁voices	-11.505
Or	-11.5064
▁stamps	-11.5065
▁repeated	-11.5074
▁ruin	-11.5078
▁Stop	-11.5079
▁poking	-11.5087
▁spiders	-11.5118
œThis	-11.5119
▁boss	-11.5129
▁decides	-11.5132
▁flap	-11.5136
▁men	-11.514
▁lick	-11.5143
▁cones	-11.5157
▁pears	-11.5166
▁brushes	-11.5176
▁kicking	-11.5178
▁demanded	-11.5179
▁stretching	-11.5179
▁zigzag	-11.5181
▁ago	-11.5183
un	-11.5195
▁spit	-11.5204
▁mentioned	-11.5205
▁lines	-11.5209
▁marks	-11.5233
▁protected	-11.5249
▁tonight	-11.5258
▁touching	-11.5264
▁result	-11.5281
ayla	-11.5301
▁goodnight	-11.5303
Goodbye	-11.5337
▁claps	-11.5347
▁prettiest	-11.5354
▁Santa	-11.5366
▁camping	-11.539
▁prints	-11.5401
▁soaked	-11.5401
▁barely	-11.5409
▁lip	-11.5417
▁bouncy	-11.5418
▁Linda	-11.5431
▁Both	-11.5435
▁strings	-11.5439
▁discovering	-11.5458
▁ribbons	-11.5462
▁east	-11.5483
▁draws	-11.5488
▁pockets	-11.5489
▁parked	-11.5507
▁twinkling	-11.5508
▁recommend	-11.5513
▁cub	-11.5523
▁stole	-11.5536
▁sorting	-11.5542
▁stitch	-11.5546
▁beard	-11.5546
▁rides	-11.5548
œWhy	-11.5548
▁vowed	-11.5553
▁gazed	-11.556
▁west	-11.5562
▁Momo	-11.557
▁purred	-11.5571
▁silence	-11.559
▁babies	-11.5592
▁sweeties	-11.5597
▁Afterwards	-11.5599
▁tickle	-11.5614
▁neighbors	-11.5625
▁guys	-11.563
▁applauded	-11.5651
▁loose	-11.567
▁Hoppy	-11.5672
▁horns	-11.5678
▁broom	-11.5705
▁urged	-11.5711
▁nightmare	-11.5712
▁Luke	-11.5713
▁acted	-11.5725
▁writes	-11.5735
▁dragged	-11.5757
▁luxury	-11.5759
▁catches	-11.5771
▁ladybug	-11.5776
▁shock	-11.5791
▁youth	-11.5793
eep	-11.5802
▁pearl	-11.5809
▁chewing	-11.5811
▁strike	-11.5824
▁completed	-11.5829
it	-11.5833
▁muscles	-11.5834
▁direction	-11.5839
▁rocking	-11.5842
▁emergency	-11.5853
▁pebbles	-11.5853
▁Wednesday	-11.5865
use	-11.5878
▁movies	-11.5879
▁loving	-11.5882
▁sides	-11.5889
▁powers	-11.5893
▁introduced	-11.5897
▁mittens	-11.5906
▁steep	-11.5927
▁patience	-11.5932
▁importance	-11.5934
▁Lizzy	-11.5938
▁chips	-11.5938
▁guns	-11.5939
▁oat	-11.5951
▁solution	-11.5955
▁reluctantly	-11.5968
▁curtains	-11.5985
▁buckets	-11.5998
▁figured	-11.6002
▁highest	-11.6002
▁shivered	-11.6003
▁librarian	-11.6019
▁frozen	-11.6019
▁obey	-11.6034
▁stair	-11.6041
▁rocked	-11.605
▁screaming	-11.605
▁flat	-11.6053
▁unexpected	-11.6055
▁pouring	-11.6066
▁Jenna	-11.6071
▁dolphins	-11.6075
▁shelves	-11.6078
▁entire	-11.6087
▁scoop	-11.6115
▁rubbing	-11.6117
thank	-11.6123
▁season	-11.6126
▁contest	-11.6127
ip	-11.6145
▁hugging	-11.6147
▁include	-11.6151
▁staring	-11.6162
▁sorted	-11.6174
▁roaring	-11.6187
▁confident	-11.6188
œOh	-11.6203
▁effort	-11.6227
▁sting	-11.6239
▁Jeff	-11.6252
▁situation	-11.6254
▁safer	-11.6284
▁pop	-11.6286
▁policeman	-11.6289
▁fabric	-11.6292
▁curly	-11.6316
▁awesome	-11.6346
▁chases	-11.6363
▁usual	-11.6366
▁Tuesday	-11.6371
▁planets	-11.6398
▁lean	-11.6402
▁wedding	-11.6414
▁passing	-11.6417
▁shined	-11.6418
▁dared	-11.6431
▁balancing	-11.6435
▁sighs	-11.6451
▁plenty	-11.6453
▁Suzie	-11.6454
▁matched	-11.6465
▁lied	-11.6481
▁homework	-11.6497
▁zookeeper	-11.6503
▁slimy	-11.6516
▁bravery	-11.6528
▁Dolly	-11.6541
▁heel	-11.6546
▁truly	-11.655
▁cheering	-11.6574
▁allow	-11.6587
▁web	-11.6632
▁blink	-11.6647
▁Cindy	-11.665
▁eight	-11.6659
▁waiter	-11.667
▁knowledge	-11.6671
▁drives	-11.6675
▁patted	-11.6682
▁dragons	-11.6685
▁caused	-11.6688
▁reaching	-11.6728
▁Pinky	-11.674
▁Matt	-11.6741
▁sausages	-11.6743
▁Always	-11.6744
▁radishes	-11.6747
▁arguing	-11.675
▁resting	-11.6751
▁flags	-11.6772
▁struggle	-11.6776
▁goals	-11.6777
▁packing	-11.678
▁growling	-11.6806
▁blooming	-11.681
▁spraying	-11.6812
▁towels	-11.6819
▁exhausted	-11.6839
▁worker	-11.6844
▁growl	-11.6848
▁spike	-11.6881
▁cast	-11.6896
▁sticking	-11.6897
oh	-11.6898
▁kneeled	-11.6912
▁paddled	-11.6917
▁super	-11.6948
▁startled	-11.6949
▁markers	-11.6958
▁Jacob	-11.6963
▁mane	-11.6969
▁singer	-11.6973
▁rescued	-11.6981
▁written	-11.6983
▁dusty	-11.699
▁inviting	-11.6994
▁traveled	-11.6994
▁project	-11.6994
▁expected	-11.7011
▁spill	-11.7017
▁paintings	-11.7017
▁flavor	-11.7029
▁bank	-11.7029
▁Tara	-11.7031
▁matching	-11.7033
▁arrive	-11.7056
o	-11.7069
▁rid	-11.7074
▁pupil	-11.7087
▁princesses	-11.7089
▁Julia	-11.709
▁creating	-11.7091
▁marriage	-11.7091
▁snail	-11.7095
▁regretted	-11.7097
▁bloomed	-11.7104
▁trembling	-11.7113
▁replaced	-11.7117
Exc	-11.7125
▁recorded	-11.7146
▁Lizzie	-11.7155
▁siren	-11.7166
▁included	-11.7169
▁prayer	-11.7169
▁motion	-11.7172
▁cubes	-11.7177
▁observed	-11.7188
▁Lena	-11.7196
▁Jessica	-11.7206
▁daisies	-11.7217
▁activities	-11.7228
▁ranger	-11.7263
▁encourage	-11.7265
Today	-11.7268
▁pajamas	-11.7272
▁opening	-11.7295
▁seesaw	-11.7296
▁glitter	-11.7303
▁removed	-11.7307
▁worries	-11.7308
▁darkness	-11.7309
▁ventured	-11.7311
▁countryside	-11.7319
▁Good	-11.7328
▁organizing	-11.733
▁timer	-11.733
▁crowd	-11.733
▁rainbows	-11.7339
▁completely	-11.7345
▁fairies	-11.7361
▁relief	-11.7366
▁flash	-11.7367
▁storekeeper	-11.7383
▁leader	-11.7389
▁fault	-11.7397
Jim	-11.7402
▁quack	-11.7419
▁workers	-11.7421
▁belly	-11.7434
▁wasted	-11.7434
▁Johnson	-11.7442
▁pencils	-11.7469
▁twinkle	-11.7475
▁wires	-11.7503
▁quacked	-11.751
▁applaud	-11.7519
▁polishing	-11.7533
▁Fox	-11.7547
▁becoming	-11.7569
▁vanish	-11.757
▁Leave	-11.7589
▁harm	-11.7591
▁lamb	-11.7592
▁hunt	-11.7598
▁Slowly	-11.7609
Yeah	-11.762
▁slap	-11.7639
▁everybody	-11.7649
▁desert	-11.7651
▁texture	-11.766
▁faced	-11.768
▁folding	-11.7702
▁melting	-11.7712
▁squealed	-11.7715
▁An	-11.7719
▁bar	-11.7721
▁healed	-11.7721
▁Jones	-11.7741
▁opinion	-11.7744
▁pretends	-11.7745
▁flames	-11.7769
▁seagull	-11.777
hello	-11.777
Just	-11.777
▁poems	-11.7778
▁agrees	-11.7779
▁throat	-11.7782
▁bottles	-11.7784
▁ripe	-11.7786
▁baker	-11.7796
▁usually	-11.7809
▁tractor	-11.7823
▁penguins	-11.7825
▁crumbs	-11.7828
▁dipped	-11.7831
▁Follow	-11.7853
▁eats	-11.7857
▁Two	-11.7862
▁Mira	-11.7868
▁lap	-11.7879
▁teaches	-11.7885
ob	-11.7885
▁groceries	-11.7899
ara	-11.7901
▁reply	-11.7927
▁crow	-11.7933
▁dentist	-11.7937
▁provided	-11.7939
▁roads	-11.7942
▁polished	-11.7946
▁valued	-11.7947
▁wandering	-11.7965
est	-11.7966
▁peeking	-11.797
▁bend	-11.7973
▁den	-11.7973
▁honk	-11.7984
▁gaze	-11.7989
▁Bye	-11.799
▁helmets	-11.7991
▁scales	-11.7995
▁pots	-11.7999
▁staying	-11.8002
▁interested	-11.8003
▁kneel	-11.8005
▁cautiously	-11.8023
▁cracked	-11.8032
▁Put	-11.8035
▁united	-11.8046
▁faraway	-11.808
▁misses	-11.8104
▁winked	-11.8105
▁protecting	-11.8113
▁logs	-11.8115
▁seems	-11.8119
▁lollipops	-11.8121
▁marked	-11.8129
▁younger	-11.8152
▁cuts	-11.8156
▁meow	-11.8159
▁balanced	-11.8161
▁chuckled	-11.8164
▁fuzzy	-11.8167
▁Many	-11.8168
▁Larry	-11.8184
▁forehead	-11.8185
▁pastries	-11.8185
▁single	-11.8187
▁signed	-11.8208
▁particular	-11.8213
▁June	-11.8222
you	-11.823
▁beads	-11.8236
▁sense	-11.8241
▁Doggy	-11.8251
▁boom	-11.8254
▁rubs	-11.8257
▁however	-11.8259
▁blows	-11.8269
▁copy	-11.8271
œMommy	-11.8275
▁actions	-11.8285
▁crabs	-11.8289
▁splashes	-11.8295
▁knights	-11.8297
▁Sorry	-11.8312
▁filling	-11.8314
▁crackers	-11.8332
▁bat	-11.8336
▁directions	-11.8337
▁Sophia	-11.8342
▁twin	-11.8348
▁yesterday	-11.8375
room	-11.8377
▁restored	-11.8389
▁suitcase	-11.8391
▁keeps	-11.8395
▁sew	-11.8397
▁fluttered	-11.8409
▁snowballs	-11.8423
▁cause	-11.8433
▁swooped	-11.844
▁Happy	-11.8458
▁wiggled	-11.8459
▁awake	-11.8462
▁boo	-11.8462
▁Abbie	-11.8474
▁sweets	-11.848
▁kites	-11.8487
ery	-11.8498
▁roots	-11.85
▁somebody	-11.8502
Bad	-11.8505
▁Christmas	-11.8518
▁bumpy	-11.8537
▁itchy	-11.8537
▁celebration	-11.8538
▁rings	-11.8552
▁achieve	-11.8554
▁inch	-11.8562
Sometimes	-11.8567
▁Everybody	-11.8575
▁roses	-11.8578
▁disagree	-11.8604
▁Watch	-11.8612
▁Gigi	-11.8622
▁cashier	-11.8625
▁tallest	-11.8636
▁wow	-11.8641
▁froze	-11.8647
▁Nothing	-11.8647
▁remote	-11.866
▁Laura	-11.8667
▁Mickey	-11.8673
▁determination	-11.8682
▁nectar	-11.8682
▁pastels	-11.8684
▁darker	-11.8688
▁stare	-11.8699
▁speaking	-11.8701
▁snakes	-11.8703
▁pedals	-11.8707
▁Sparky	-11.8727
▁photos	-11.8753
ay	-11.8755
▁recording	-11.8766
▁Out	-11.8771
▁complaining	-11.8777
▁piggy	-11.8778
▁owners	-11.8803
oar	-11.8808
boo	-11.8811
▁pat	-11.8816
▁Being	-11.8817
▁sneaky	-11.8836
▁Pandy	-11.8845
Then	-11.8855
▁delivery	-11.886
▁pleasure	-11.8868
▁liquid	-11.8871
▁entrance	-11.8874
▁bars	-11.8875
▁acting	-11.8881
i	-11.8885
Fine	-11.8904
▁rolls	-11.8907
▁miles	-11.8944
▁noon	-11.8948
▁delivered	-11.8952
▁coloured	-11.8968
▁lower	-11.8976
▁Nick	-11.8977
▁tricked	-11.8998
▁Enjoy	-11.9001
▁Emmy	-11.9028
▁beyond	-11.9035
▁Jazz	-11.9043
▁Jess	-11.9043
▁afterwards	-11.9044
▁videos	-11.9057
When	-11.9058
▁hissed	-11.906
▁glasses	-11.9078
uack	-11.9097
▁joking	-11.9104
▁cough	-11.9104
▁rule	-11.9119
▁Stella	-11.9121
▁sobbed	-11.9127
▁farther	-11.9128
▁tickled	-11.9129
▁burst	-11.9146
▁scaring	-11.9154
▁expect	-11.9159
▁stolen	-11.9161
▁reveal	-11.9162
▁colored	-11.9163
▁Buzzy	-11.9172
▁Days	-11.9176
▁cheeks	-11.9177
▁tricky	-11.9182
obby	-11.9205
▁insects	-11.9229
▁pause	-11.9233
œCome	-11.9236
▁calmed	-11.9257
obbie	-11.9258
▁talented	-11.9262
▁sled	-11.9265
▁lung	-11.927
▁trips	-11.9274
▁indeed	-11.9302
▁tangled	-11.9302
over	-11.9306
▁naps	-11.9311
▁adding	-11.9311
▁warn	-11.9314
▁smarter	-11.9316
▁candies	-11.9322
▁scarves	-11.9329
▁sandcastles	-11.9343
▁learns	-11.9359
▁Olive	-11.9361
▁achieved	-11.9361
▁Aunt	-11.9378
▁consequences	-11.9396
aren	-11.9401
▁badge	-11.9402
▁wrist	-11.9405
▁yourselves	-11.9411
▁hallway	-11.9411
▁knees	-11.9415
▁Princess	-11.9419
▁deal	-11.9423
▁leading	-11.943
Grandma	-11.9433
▁rockets	-11.9437
▁hesitated	-11.9449
▁impossible	-11.9452
▁giraffes	-11.9455
▁batteries	-11.9455
▁paddle	-11.9459
▁masks	-11.9479
▁wink	-11.9494
▁peel	-11.9496
▁beginning	-11.9497
▁darling	-11.9505
▁Chris	-11.9512
▁bumps	-11.953
▁mixture	-11.9531
▁Maya	-11.9538
▁covers	-11.9544
▁outfit	-11.955
▁choices	-11.955
l	-11.9563
▁Get	-11.9563
▁grand	-11.9566
▁Pam	-11.9569
obert	-11.9569
▁skill	-11.9588
▁explorers	-11.9599
▁foods	-11.9602
▁accomplishment	-11.962
▁guy	-11.9627
▁recommended	-11.9634
in	-11.9637
▁weeping	-11.9641
▁gracefully	-11.9648
▁Milo	-11.9649
▁seeker	-11.9651
▁cost	-11.9659
en	-11.9661
▁bakery	-11.9675
▁deserve	-11.9676
▁Mikey	-11.9686
▁salty	-11.9715
▁improved	-11.9719
▁firefighters	-11.9723
▁swept	-11.9727
▁hider	-11.974
▁stroked	-11.9749
▁flapping	-11.977
yan	-11.9774
▁complained	-11.9786
▁magnets	-11.9835
Shh	-11.9855
▁stem	-11.9855
▁talent	-11.9869
▁Abi	-11.9878
▁seven	-11.9885
▁third	-11.9887
▁teased	-11.9894
▁Snuggles	-11.99
▁glee	-11.9902
▁lighter	-11.9912
▁parties	-11.992
▁Martha	-11.9924
▁travelled	-11.9927
œDo	-11.9934
▁Granny	-11.9946
▁basement	-11.9948
nuck	-11.9949
▁horizon	-11.9959
▁performance	-11.996
▁fever	-11.997
▁cupcakes	-11.9985
▁marker	-11.9987
▁hearing	-11.9994
▁wipes	-11.9999
▁siblings	-12.0009
▁kicks	-12.0009
▁shirts	-12.0012
œHi	-12.0022
▁mushrooms	-12.0034
▁heading	-12.0036
▁Not	-12.0037
▁dots	-12.0042
▁smiley	-12.0051
▁snatched	-12.0054
▁clowns	-12.0065
▁fluttering	-12.0066
▁threat	-12.0066
▁uses	-12.0078
▁handful	-12.0094
▁ruining	-12.0107
▁closes	-12.0116
▁secure	-12.0118
▁bedtime	-12.0128
▁knocks	-12.0129
ie	-12.013
▁Water	-12.0137
▁Ow	-12.0154
▁neither	-12.016
▁dollhouse	-12.016
▁Along	-12.0179
▁objects	-12.018
▁puppies	-12.0186
▁lettuce	-12.0204
▁scrubbed	-12.0204
▁buying	-12.0207
▁families	-12.0208
▁celebrating	-12.0208
▁paying	-12.021
go	-12.0221
▁wrapping	-12.0227
▁seconds	-12.0228
es	-12.024
▁creamy	-12.0249
œWow	-12.025
▁among	-12.026
▁Finn	-12.0273
▁scratches	-12.0279
▁peacefully	-12.0279
iki	-12.0294
▁widened	-12.0298
▁drifted	-12.0298
▁source	-12.0301
▁S	-12.0302
▁rumble	-12.0304
▁treehouse	-12.0317
▁hi	-12.0323
▁wound	-12.0338
▁yells	-12.0341
▁behaved	-12.0368
▁rusty	-12.0369
▁bowls	-12.0375
▁cuddly	-12.0418
▁jackets	-12.0426
▁gems	-12.0429
▁wears	-12.0445
▁tigers	-12.0447
▁rewarded	-12.0456
Those	-12.0461
▁mention	-12.0469
▁Jay	-12.0483
▁Mabel	-12.0484
▁creativity	-12.0498
Next	-12.0499
▁shrinking	-12.0501
▁losing	-12.0517
▁Jacky	-12.0527
▁repaired	-12.0528
▁drums	-12.0541
Ah	-12.0556
or	-12.0565
▁including	-12.0567
▁Binky	-12.0575
▁tasks	-12.0585
▁tiptoed	-12.0594
▁imagining	-12.0605
▁chop	-12.0624
▁tapped	-12.0628
alph	-12.0636
▁Janie	-12.0653
▁grassy	-12.0655
▁players	-12.0658
▁separated	-12.0678
▁Goodbye	-12.0681
▁sprinkled	-12.0683
▁rising	-12.069
▁chef	-12.0692
▁granted	-12.0703
▁demand	-12.071
▁chefs	-12.0712
▁gross	-12.0714
▁Dur	-12.0725
on	-12.073
bye	-12.073
ntil	-12.0745
▁creations	-12.0754
▁arrows	-12.0772
▁damage	-12.0803
▁tissue	-12.0808
▁Sadie	-12.0812
▁needles	-12.0817
▁stomped	-12.082
▁minerals	-12.0826
▁screwdriver	-12.0831
▁grabbing	-12.0835
▁pouted	-12.0839
▁Nobody	-12.0842
▁decorating	-12.0855
▁backwards	-12.0862
œMy	-12.0867
▁hesitant	-12.0874
Have	-12.0875
▁printing	-12.0878
▁hedgehog	-12.0899
▁stung	-12.091
▁unpacked	-12.0929
▁sponge	-12.0934
▁Star	-12.0938
▁item	-12.0948
▁slower	-12.0949
▁center	-12.095
▁diving	-12.095
▁planning	-12.0958
▁beloved	-12.0967
▁avoid	-12.0979
uick	-12.0983
▁Judy	-12.0995
To	-12.0996
▁heavier	-12.0998
▁grin	-12.1014
▁reflection	-12.1022
▁materials	-12.1025
▁raindrops	-12.1032
▁Simon	-12.1045
▁Bee	-12.1046
▁trampoline	-12.1047
▁limes	-12.1047
▁willing	-12.1049
▁Marie	-12.1054
▁recipe	-12.1055
▁Squeaky	-12.1067
▁cousin	-12.1067
▁pointy	-12.1068
▁snowmen	-12.1075
▁Bluey	-12.1078
no	-12.1079
▁fears	-12.1084
▁surroundings	-12.11
▁audience	-12.1119
▁Since	-12.112
▁growls	-12.1124
▁swims	-12.1131
▁sailboat	-12.1132
▁rustling	-12.1144
Oops	-12.1148
▁snowball	-12.1153
▁artist	-12.1153
▁Bird	-12.1171
▁blocking	-12.1179
Sammy	-12.1181
▁Michael	-12.1182
oey	-12.1193
▁couple	-12.1197
▁gobbled	-12.1197
▁pans	-12.1198
▁temperature	-12.1209
▁wiping	-12.1209
▁peppers	-12.1213
nna	-12.1227
al	-12.1228
Lucy	-12.1229
▁wobbled	-12.1255
▁onions	-12.1257
▁squares	-12.126
▁aren	-12.127
▁stool	-12.1271
▁discussed	-12.1272
▁windy	-12.1273
▁ache	-12.1295
▁designed	-12.13
▁neighbours	-12.1322
▁Maddie	-12.1322
▁wins	-12.1333
▁Todd	-12.1334
▁slammed	-12.1353
▁pecked	-12.1354
▁slices	-12.1356
▁age	-12.1373
ueen	-12.1382
Meow	-12.1391
▁Gina	-12.1398
▁silent	-12.1407
▁hitting	-12.1433
▁Earth	-12.1467
▁helpers	-12.1489
▁sale	-12.1492
▁un	-12.1506
▁ornaments	-12.1506
▁Jackie	-12.1533
▁raccoon	-12.1534
Jenny	-12.1539
▁requested	-12.154
▁Back	-12.1551
▁aside	-12.1565
▁chirp	-12.1579
▁curiously	-12.1583
▁d	-12.1611
▁adult	-12.1623
▁vanilla	-12.1632
▁reads	-12.1645
▁sports	-12.1647
uth	-12.1653
▁familiar	-12.1657
▁afford	-12.1661
▁shaped	-12.1679
▁duckling	-12.1684
▁Although	-12.1688
▁leaning	-12.1693
Jane	-12.1706
▁coloring	-12.1714
Great	-12.1718
Time	-12.1719
▁intrigued	-12.1722
▁greeted	-12.1722
▁breathed	-12.1726
▁dollars	-12.173
▁Those	-12.1733
▁remembering	-12.1733
▁hour	-12.1748
▁raincoat	-12.1753
▁potion	-12.1753
▁chosen	-12.1762
▁spreading	-12.1762
▁thrown	-12.1767
▁prettier	-12.1774
▁twice	-12.1778
▁warnings	-12.1781
▁praying	-12.1782
▁click	-12.1792
▁listens	-12.1811
▁chick	-12.1814
▁Frog	-12.182
▁gardener	-12.1826
▁touches	-12.1829
▁rivers	-12.1831
Yummy	-12.1831
▁reason	-12.184
▁enthusiasm	-12.1847
▁husband	-12.1852
▁swans	-12.1879
▁zipping	-12.1887
▁Our	-12.1893
ness	-12.1894
▁sparks	-12.19
▁superheroes	-12.19
▁spoonful	-12.1914
▁magician	-12.1918
▁weekend	-12.1919
▁forks	-12.1921
▁daring	-12.1922
▁least	-12.1931
▁grandparents	-12.1932
Boo	-12.1935
▁skunk	-12.194
▁Amelia	-12.194
▁wishing	-12.1942
▁changing	-12.1958
▁Fido	-12.1962
▁Ali	-12.1962
▁screws	-12.1965
Alice	-12.1973
▁borrowed	-12.1973
▁sunflowers	-12.1973
▁meals	-12.1975
▁Friends	-12.198
▁dreamt	-12.1983
▁flight	-12.1988
▁forgetting	-12.1998
Woof	-12.1999
▁spikes	-12.2002
▁rotten	-12.2006
▁snuggle	-12.2007
▁hopeful	-12.201
▁bodies	-12.2015
▁woof	-12.2062
▁guests	-12.2066
▁mesmerized	-12.2073
▁sending	-12.2083
▁heroes	-12.2084
▁feast	-12.209
lined	-12.2114
▁die	-12.2127
▁buzzed	-12.2127
▁flavors	-12.213
▁neatly	-12.2146
▁toddler	-12.2149
ee	-12.2172
▁sailors	-12.2172
▁steady	-12.2185
▁handsome	-12.2185
▁mat	-12.2186
▁tunnels	-12.2197
▁feeding	-12.2201
Our	-12.2216
▁hides	-12.2227
▁muscle	-12.2239
▁alien	-12.2266
▁delivering	-12.2267
▁nine	-12.2269
▁onward	-12.2271
▁dived	-12.2294
▁corners	-12.2299
▁promises	-12.2305
▁politely	-12.2308
▁suffering	-12.2315
▁oh	-12.233
▁warmer	-12.2333
▁Lia	-12.2347
--	-12.2368
▁Meg	-12.2376
▁prove	-12.2382
▁sneezing	-12.2386
▁swords	-12.2386
▁honked	-12.2392
▁poster	-12.2401
f	-12.241
Whee	-12.2419
▁plain	-12.2427
yes	-12.2429
▁plucked	-12.2437
▁crashing	-12.2445
▁Wendy	-12.2465
▁refreshing	-12.2501
▁mints	-12.2502
▁unsure	-12.2506
▁dip	-12.2507
▁Birthday	-12.2515
▁seaweed	-12.2515
▁increased	-12.2536
▁oatmeal	-12.2539
Sue	-12.2543
▁crew	-12.2553
▁thud	-12.2553
▁pens	-12.2563
▁stern	-12.2581
▁joining	-12.2585
▁students	-12.2585
▁preparing	-12.2595
▁swallowed	-12.26
▁lungs	-12.2605
▁hops	-12.2611
▁noses	-12.263
▁glued	-12.2634
œMom	-12.2636
▁Frosty	-12.2643
▁napkins	-12.2647
▁Baa	-12.2657
▁Bessie	-12.2662
▁wraps	-12.2663
▁rip	-12.2665
▁bows	-12.2675
▁sniff	-12.2685
ight	-12.2689
▁toaster	-12.2696
years	-12.2703
œBut	-12.2707
▁zebras	-12.2708
▁performed	-12.2709
▁Squirrel	-12.2725
▁starfish	-12.2728
▁Farmer	-12.2743
▁trembled	-12.2744
▁presses	-12.2747
▁hawk	-12.2752
▁wobbly	-12.2752
c	-12.2774
▁postman	-12.2795
▁geese	-12.2799
▁Holly	-12.2801
▁Love	-12.2809
Amy	-12.2814
▁shops	-12.2814
œWell	-12.2818
▁plans	-12.2819
▁Momma	-12.282
▁puppet	-12.2822
▁wag	-12.2828
▁flutter	-12.2836
▁scraped	-12.2848
▁focused	-12.2848
▁resisted	-12.2852
Sally	-12.2852
▁streets	-12.2853
▁merry	-12.2854
▁biting	-12.2855
▁Dr	-12.2856
▁panicked	-12.2857
▁bully	-12.286
▁watering	-12.2865
▁counts	-12.2867
▁dropping	-12.2872
▁whispers	-12.2875
▁rushing	-12.2875
▁freedom	-12.2881
▁Patch	-12.2897
▁C	-12.2904
▁softer	-12.2906
▁waddled	-12.2906
▁firmly	-12.2906
▁sniffs	-12.2913
▁adults	-12.293
aty	-12.2937
▁wiggle	-12.2938
le	-12.2948
▁joyful	-12.2955
▁firefly	-12.2959
▁stays	-12.2971
▁robber	-12.2988
▁tested	-12.2993
œWhere	-12.3003
▁frowning	-12.3006
▁waterfall	-12.3028
▁worn	-12.3033
▁Thanks	-12.3036
▁Davey	-12.3069
▁ham	-12.3071
▁slips	-12.3072
▁lifts	-12.3075
▁Bubba	-12.3088
▁Samantha	-12.3089
▁nervously	-12.3091
▁faded	-12.3092
u	-12.3096
▁lifting	-12.3103
▁cushions	-12.3103
▁scampered	-12.3107
▁Maddy	-12.3119
▁triangles	-12.312
▁Only	-12.3127
▁spat	-12.3128
▁dancers	-12.3135
▁firefighter	-12.3142
▁leads	-12.3172
▁appreciation	-12.3176
▁forgets	-12.3201
▁Megan	-12.3207
▁drawn	-12.3221
▁pennies	-12.3221
▁baths	-12.3224
▁quarreling	-12.3226
▁respected	-12.3231
▁Listen	-12.3231
▁master	-12.3231
▁twinkled	-12.3238
▁Stay	-12.324
▁throughout	-12.3242
TMd	-12.3246
▁Flopsy	-12.3247
▁dresser	-12.3259
▁stacked	-12.3261
▁leapt	-12.3262
▁Tuna	-12.3263
▁Honey	-12.3264
▁Owl	-12.3265
▁guide	-12.3275
▁Fuzzy	-12.3282
Ew	-12.3308
▁grant	-12.3311
▁chat	-12.3357
▁Meanwhile	-12.3357
▁overcome	-12.3364
▁stands	-12.3367
▁tricycle	-12.3368
▁Mina	-12.3369
▁playtime	-12.338
▁grows	-12.3382
▁strongest	-12.3388
▁elf	-12.3389
▁polar	-12.3393
▁Sofia	-12.3394
▁bravest	-12.3398
▁months	-12.3413
▁compassion	-12.3434
▁Take	-12.3444
Mine	-12.3451
▁humans	-12.3452
▁drawers	-12.3452
▁Freddie	-12.3461
▁wept	-12.3465
▁echoed	-12.349
▁scored	-12.3494
▁cosy	-12.3495
▁colder	-12.35
▁Eva	-12.3506
▁garbage	-12.3511
▁encouraging	-12.3521
▁amount	-12.3524
S	-12.3547
▁performing	-12.3549
▁matters	-12.3561
ar	-12.3573
▁playroom	-12.3576
▁pours	-12.3588
▁sank	-12.3589
▁Fiona	-12.359
please	-12.3591
▁flown	-12.3594
▁dances	-12.3601
▁explorer	-12.3611
▁sweetest	-12.3613
▁forgiving	-12.3615
▁probably	-12.3615
▁behaving	-12.3625
ids	-12.3638
▁marshmallows	-12.364
▁pigeons	-12.3658
nder	-12.3665
▁squeezing	-12.3667
▁tossed	-12.3677
▁avocados	-12.3683
▁blinking	-12.3685
▁base	-12.3688
▁begin	-12.3688
ocky	-12.3694
▁causing	-12.3698
Mary	-12.3706
let	-12.3712
▁shown	-12.3742
Like	-12.3743
▁Despite	-12.3746
œOkay	-12.3749
▁squishy	-12.3756
Joe	-12.3759
elly	-12.3767
▁Jojo	-12.3767
el	-12.378
▁spices	-12.3815
▁tighter	-12.3815
▁healing	-12.3816
▁passengers	-12.3818
▁yielded	-12.3833
▁necklaces	-12.3849
▁Mouse	-12.3859
▁reversed	-12.3861
▁tails	-12.3868
▁conflict	-12.3889
▁doorway	-12.39
▁Mae	-12.3907
▁aimed	-12.3916
▁B	-12.392
Surprise	-12.3927
▁napping	-12.3927
▁ropes	-12.3933
▁Louise	-12.3933
▁ease	-12.3937
▁coral	-12.3948
▁notes	-12.3958
▁fact	-12.3965
▁cobwebs	-12.3971
▁nearly	-12.3973
▁yum	-12.3984
oo	-12.3988
▁designs	-12.3995
▁Still	-12.4002
icky	-12.4007
Follow	-12.4011
▁Birdy	-12.403
▁wider	-12.4032
▁sewing	-12.4053
▁instruments	-12.4064
▁appreciated	-12.4077
▁paintbrush	-12.4078
▁action	-12.4082
Lisa	-12.4099
Watch	-12.4099
▁brushing	-12.4104
▁clues	-12.4108
▁cleaner	-12.411
▁cottage	-12.4117
▁wakes	-12.4129
▁loading	-12.4143
▁EndOnce	-12.4144
▁blast	-12.4149
Listen	-12.4153
▁Halloween	-12.4166
D	-12.4175
▁heartbroken	-12.4177
▁Because	-12.4195
▁blocked	-12.42
▁pumpkins	-12.4206
▁slipping	-12.4216
▁evil	-12.4227
Johnny	-12.4227
▁laying	-12.4229
▁repeating	-12.4247
▁anger	-12.4248
▁grandchild	-12.4249
▁Lou	-12.4274
▁soaking	-12.4274
▁Jan	-12.4276
▁buzz	-12.4292
▁mailed	-12.4294
▁spins	-12.4298
▁twisty	-12.4301
▁Pippin	-12.4305
▁twisting	-12.4311
▁suffered	-12.4318
▁health	-12.4321
ia	-12.4324
▁Maisy	-12.4328
▁behavior	-12.4338
▁connected	-12.4339
▁crossing	-12.4345
▁Ally	-12.4349
▁angels	-12.4355
▁accomplished	-12.4361
▁buses	-12.4362
▁damaged	-12.4362
▁pad	-12.4364
▁puzzled	-12.4364
evin	-12.4371
▁noodles	-12.4378
▁final	-12.4384
▁licking	-12.4386
espite	-12.4389
▁giggles	-12.4391
▁results	-12.4396
▁passports	-12.4397
▁several	-12.44
▁breathing	-12.4401
▁within	-12.4402
▁tying	-12.4406
▁Pippa	-12.4418
▁surfing	-12.442
▁surrendered	-12.442
▁toward	-12.4431
▁finishing	-12.4442
▁Spidey	-12.4445
œPlease	-12.4446
▁streamers	-12.4451
▁lending	-12.4451
▁hairdresser	-12.4456
▁risks	-12.4459
œOf	-12.45
▁supported	-12.4502
▁Hope	-12.4505
▁shady	-12.4508
▁awoke	-12.4519
▁luckily	-12.4525
▁quieter	-12.4525
▁ignoring	-12.4548
▁stitches	-12.4553
Take	-12.4565
▁rather	-12.4576
▁rainy	-12.458
▁whose	-12.458
Fighting	-12.4582
▁drivers	-12.4588
▁ponies	-12.4588
▁D	-12.4609
▁Jonny	-12.4614
▁fantastic	-12.4622
▁pins	-12.4624
▁cotton	-12.4628
▁Curious	-12.464
▁battle	-12.4645
▁surfboard	-12.4645
▁ties	-12.4647
▁cloudy	-12.4664
▁Becky	-12.4693
▁shovels	-12.4699
▁grip	-12.47
▁robots	-12.4704
▁belts	-12.4705
▁snowflakes	-12.4709
▁Wally	-12.4715
▁sped	-12.4715
▁pays	-12.4729
▁bells	-12.474
▁definitely	-12.4744
E	-12.4751
▁Auntie	-12.4758
▁Pretty	-12.4765
▁thorns	-12.4773
▁smallest	-12.478
▁fleas	-12.4783
▁Well	-12.4783
▁reminding	-12.4795
▁wisely	-12.4802
▁driveway	-12.4808
▁correctly	-12.4814
▁cuddles	-12.4817
œNow	-12.4817
▁swimsuit	-12.4826
choo	-12.4829
▁Splash	-12.483
▁student	-12.4838
▁Pepper	-12.4839
▁frowns	-12.4848
▁oysters	-12.485
▁peeled	-12.4869
▁fits	-12.4874
▁grandson	-12.4879
▁newfound	-12.488
▁Time	-12.4882
▁squeaked	-12.4886
▁Janey	-12.489
▁chopped	-12.4891
▁granddaughter	-12.4903
▁bleed	-12.4909
▁birdhouse	-12.491
oger	-12.493
▁wobble	-12.4951
▁weeds	-12.4961
▁Mother	-12.4961
▁simply	-12.4962
▁figures	-12.4973
▁squeak	-12.4974
▁fishes	-12.4974
▁bracelets	-12.4981
▁kittens	-12.4992
▁Froggy	-12.4999
▁Mo	-12.5002
▁response	-12.5016
▁nasty	-12.5034
▁straw	-12.5034
▁expert	-12.504
▁stopping	-12.5048
but	-12.5069
▁punishment	-12.5076
▁decisions	-12.508
▁afar	-12.5082
▁purr	-12.5082
▁banged	-12.5085
▁inspired	-12.5088
▁Bo	-12.5108
▁tipped	-12.5112
at	-12.5112
▁disturbing	-12.5116
▁concert	-12.5118
▁masterpiece	-12.5118
▁lent	-12.5143
▁flipped	-12.5149
▁footsteps	-12.5155
▁Bounce	-12.5156
▁stain	-12.5163
œHey	-12.5165
▁pedaled	-12.5169
▁Flo	-12.517
▁Dog	-12.5178
▁windowsill	-12.5179
▁travelling	-12.5185
▁darlings	-12.5201
▁scarecrow	-12.521
▁presented	-12.5212
▁Jax	-12.5216
▁roars	-12.523
▁Fire	-12.5241
▁apologised	-12.5246
▁Excitedly	-12.5259
▁symbols	-12.526
▁encouragement	-12.5265
▁planting	-12.5267
▁vines	-12.5282
▁congratulated	-12.5283
▁Elle	-12.5294
▁exercises	-12.5294
▁Dory	-12.5297
▁Welcome	-12.5308
▁arranged	-12.5314
am	-12.5319
▁believing	-12.532
▁reassured	-12.532
▁trotted	-12.5326
▁reunited	-12.5333
round	-12.534
▁spits	-12.5354
▁edges	-12.5357
▁nodding	-12.5357
▁Feeling	-12.537
▁Try	-12.538
▁poppies	-12.5382
ero	-12.5385
▁campfire	-12.5395
▁clerk	-12.5413
▁covering	-12.543
less	-12.5442
▁terrified	-12.5444
ers	-12.5452
▁focus	-12.5455
▁steer	-12.5455
Alright	-12.5463
Beep	-12.5466
▁activity	-12.5488
▁seller	-12.5498
▁yelped	-12.5501
▁wrinkled	-12.5507
▁paths	-12.5517
▁bandages	-12.5524
▁sharks	-12.553
▁mood	-12.5534
▁firm	-12.5545
▁smelling	-12.5546
▁Snowman	-12.5546
udy	-12.555
▁talks	-12.556
▁tasting	-12.5561
▁chilly	-12.5564
ack	-12.5568
▁speeding	-12.5578
▁mermaid	-12.5582
▁images	-12.5587
▁travels	-12.5589
ro	-12.5591
▁suggestion	-12.5595
▁pleaded	-12.5596
▁sniffing	-12.5597
▁testing	-12.5599
▁delayed	-12.5606
▁comforting	-12.561
▁braver	-12.5613
▁Startled	-12.5621
▁calmly	-12.5629
uackers	-12.5653
▁Elly	-12.5667
▁Amanda	-12.5673
▁officers	-12.5675
▁discussing	-12.5689
▁spies	-12.5704
▁aware	-12.5705
▁spills	-12.5716
▁belongings	-12.5718
▁bothering	-12.5722
▁artwork	-12.5724
▁refuse	-12.5729
▁although	-12.573
▁displayed	-12.5735
▁admiration	-12.5749
▁gesture	-12.5756
Mandy	-12.5759
▁burying	-12.5768
▁foxes	-12.5772
▁unfortunately	-12.5782
▁lies	-12.5788
the	-12.5793
▁business	-12.5795
▁worrying	-12.5798
▁untie	-12.582
▁toolbox	-12.5821
▁buddy	-12.5834
▁bitten	-12.584
▁Outside	-12.5847
Teddy	-12.585
vroom	-12.585
Dear	-12.5853
▁Daniel	-12.5856
▁experienced	-12.5859
▁Charlotte	-12.5867
▁cheers	-12.5867
▁humming	-12.5879
▁dragonfly	-12.5879
▁backpacks	-12.5886
we	-12.5911
▁purpose	-12.5912
g	-12.5914
▁efforts	-12.5917
▁coach	-12.5919
▁solving	-12.592
▁labels	-12.5927
In	-12.5929
▁suits	-12.5935
▁knots	-12.5936
▁annoyed	-12.5951
▁gears	-12.5953
▁Nancy	-12.596
▁tumbled	-12.596
▁Snowball	-12.5971
▁momma	-12.5972
▁Bow	-12.598
k	-12.5987
œThe	-12.5987
▁Saturday	-12.5991
▁nibbled	-12.5998
▁scent	-12.6006
▁sunscreen	-12.6011
▁material	-12.6013
▁warmly	-12.6019
▁seashells	-12.6021
▁Frankie	-12.6036
▁rotting	-12.6045
▁treated	-12.6055
▁Tess	-12.6057
▁Helen	-12.6077
▁conversation	-12.608
▁pro	-12.6091
▁magazines	-12.6095
▁gazing	-12.6104
▁Lina	-12.6104
▁members	-12.6107
▁insisting	-12.6112
œSure	-12.6113
Joey	-12.6124
▁untied	-12.6125
▁Patty	-12.6126
▁kings	-12.6132
▁Gus	-12.6135
▁environment	-12.6137
▁parted	-12.6163
▁whispering	-12.6163
▁Elsa	-12.6165
▁vehicles	-12.6166
▁mischievous	-12.6171
▁encountered	-12.6171
▁sewed	-12.6186
▁cowboy	-12.6194
▁scurrying	-12.6205
ain	-12.6211
C	-12.622
▁tilted	-12.6225
▁joked	-12.6232
▁ships	-12.6233
▁Sasha	-12.6239
▁genie	-12.6245
▁Fortunately	-12.6266
▁Tammy	-12.6272
ne	-12.6276
▁spooky	-12.6279
▁Ava	-12.6287
▁prayers	-12.6289
Get	-12.6291
▁permitted	-12.6293
▁scientist	-12.6297
▁type	-12.6303
▁guest	-12.6304
▁except	-12.6306
▁stored	-12.6335
T	-12.6346
ic	-12.6372
▁Ana	-12.6372
▁Eddie	-12.6376
▁glittering	-12.6398
▁peas	-12.641
▁beaming	-12.6417
▁stroke	-12.6427
▁list	-12.643
▁maker	-12.6436
▁tables	-12.6439
œSee	-12.6448
▁donkey	-12.6465
▁pandas	-12.6468
▁charge	-12.647
▁Stitch	-12.6472
one	-12.6489
▁packages	-12.6494
▁cleared	-12.6505
▁tablet	-12.6506
▁changes	-12.6509
▁P	-12.6514
▁visitors	-12.6516
▁fins	-12.652
▁tapping	-12.652
▁pupils	-12.6525
▁chocolates	-12.6556
▁convinced	-12.6556
▁sails	-12.6559
▁swollen	-12.6562
▁Seeing	-12.6575
▁sweaty	-12.6576
▁Lion	-12.6581
▁customers	-12.6585
▁Hold	-12.6589
Leave	-12.6589
▁opposite	-12.659
▁Speedy	-12.659
▁million	-12.659
▁declared	-12.6604
▁slowed	-12.661
▁Poor	-12.6618
▁examining	-12.6625
▁loops	-12.6637
▁dressing	-12.6661
▁warrior	-12.6667
▁failed	-12.6668
▁wounds	-12.6682
▁shall	-12.6689
▁characters	-12.6691
▁F	-12.6697
▁tidied	-12.671
▁crowns	-12.6715
ered	-12.6718
▁grandfather	-12.6725
▁lessons	-12.6738
▁Elsie	-12.6739
▁Jean	-12.6739
▁forgiveness	-12.6747
▁hike	-12.6752
▁sternly	-12.6753
▁Finny	-12.6753
▁goodies	-12.6765
▁lipstick	-12.6767
▁Terry	-12.6769
▁guessing	-12.677
b	-12.6771
ter	-12.6782
▁youngest	-12.6784
▁scratching	-12.6786
▁drift	-12.6801
▁sheets	-12.6806
▁inchworm	-12.6817
▁beeped	-12.6839
▁meowing	-12.6848
▁nibble	-12.6853
▁rescuing	-12.6853
▁orders	-12.6855
▁Green	-12.6855
ther	-12.6858
P	-12.6859
▁Okay	-12.6868
▁aisle	-12.6868
▁William	-12.6869
▁Excited	-12.6874
▁scrambled	-12.6882
▁questioned	-12.6882
▁Spring	-12.6885
▁dripping	-12.6889
▁films	-12.6891
▁bouquet	-12.6896
▁active	-12.6896
▁Bongo	-12.6918
▁anticipation	-12.6918
▁force	-12.6923
▁spells	-12.6925
▁tubes	-12.6927
▁thanking	-12.6933
obo	-12.6937
▁responsibility	-12.694
▁responded	-12.694
▁hoops	-12.6949
▁smashed	-12.6955
▁seagulls	-12.6955
▁attacked	-12.6955
▁decoration	-12.697
▁emerged	-12.6976
▁Izzy	-12.6978
▁knocking	-12.6985
▁obeyed	-12.6986
▁gratitude	-12.6991
▁discoveries	-12.6991
Goodnight	-12.6991
▁Taking	-12.6992
▁rely	-12.7005
▁diamonds	-12.7016
▁proper	-12.7042
▁classmates	-12.705
▁manners	-12.7052
▁rays	-12.7067
▁Eric	-12.7073
All	-12.7075
▁survive	-12.7085
▁Jason	-12.7096
ebecca	-12.7116
▁rumbling	-12.7116
Always	-12.7116
▁signing	-12.7121
▁stumble	-12.7124
▁instantly	-12.7138
Jen	-12.7139
hind	-12.7143
oomy	-12.7143
▁manager	-12.7146
▁Me	-12.715
▁wiggly	-12.716
▁Amber	-12.716
▁Peppa	-12.7161
▁hunters	-12.7167
▁swap	-12.7167
▁elbow	-12.717
▁Tessa	-12.7175
▁nurses	-12.7182
what	-12.7198
▁buckled	-12.7211
▁seashell	-12.7215
▁brightest	-12.7219
▁shrunk	-12.7227
la	-12.7231
▁beehive	-12.7235
▁bond	-12.7235
▁munched	-12.7235
▁shimmering	-12.725
▁badger	-12.7259
▁doorbell	-12.7265
▁spy	-12.7265
▁Penelope	-12.7265
▁earned	-12.7267
▁argument	-12.7268
▁Nana	-12.7269
▁loses	-12.727
ick	-12.7294
▁turtles	-12.73
▁attack	-12.73
Sarah	-12.7301
▁sweep	-12.7301
▁swaying	-12.7303
▁lowered	-12.7305
▁Bobbie	-12.7305
▁Crabby	-12.731
▁Brian	-12.7312
led	-12.7316
▁offering	-12.7318
▁honking	-12.7328
▁purrs	-12.733
▁movements	-12.7339
▁chipmunk	-12.734
▁beaver	-12.7344
Mr	-12.7346
On	-12.7353
▁whoever	-12.7358
▁Sparkle	-12.736
▁announced	-12.7385
▁goats	-12.7387
▁address	-12.7392
▁queens	-12.7395
▁prevented	-12.7398
▁Ever	-12.74
▁greet	-12.7406
▁Olivia	-12.7409
œGood	-12.7418
▁rowed	-12.742
▁switched	-12.743
▁depend	-12.7431
▁aliens	-12.7432
▁explains	-12.7438
▁winding	-12.744
▁bathing	-12.7446
▁mosquitoes	-12.7447
Arrr	-12.7454
M	-12.746
▁Phil	-12.7464
▁routine	-12.7469
▁Matilda	-12.747
▁taped	-12.7478
▁flaps	-12.7483
▁gasp	-12.7488
▁nuzzled	-12.7492
▁prickly	-12.75
▁Gary	-12.7501
▁poses	-12.7508
Stay	-12.7509
▁swayed	-12.7516
▁tires	-12.7517
▁stethoscope	-12.7523
▁insist	-12.7536
▁destroying	-12.7544
th	-12.7552
▁laptop	-12.7562
▁designing	-12.7566
▁dodged	-12.7571
▁flips	-12.7579
▁glimmering	-12.7585
iley	-12.7591
▁fin	-12.7592
▁Ashley	-12.7593
Bang	-12.7603
▁Trust	-12.7604
▁twists	-12.7615
▁smelt	-12.7624
▁aeroplanes	-12.7625
Too	-12.763
▁Jilly	-12.7638
▁crops	-12.7643
▁customer	-12.7645
▁observing	-12.7647
▁exploded	-12.7663
uickly	-12.7663
œWho	-12.7664
▁beating	-12.7667
▁deed	-12.7669
▁peck	-12.7675
▁checkout	-12.7688
▁recorder	-12.7698
▁stamped	-12.7701
▁generosity	-12.7717
▁beautifully	-12.7725
▁scolds	-12.7728
▁knives	-12.7741
▁germs	-12.7748
▁Hoot	-12.7748
w	-12.7761
▁tummies	-12.7765
▁honesty	-12.7765
▁closing	-12.778
▁cocoon	-12.778
▁paddling	-12.778
▁Eliza	-12.7789
▁drowned	-12.7797
?!"	-12.7798
▁clicked	-12.7806
▁seals	-12.7813
▁expecting	-12.7815
▁Cara	-12.7828
▁supplied	-12.7868
▁freed	-12.7874
▁robbers	-12.7877
▁veggies	-12.7913
▁cracks	-12.7923
▁baskets	-12.7927
▁astronauts	-12.793
▁Sir	-12.793
▁increasing	-12.7932
▁wade	-12.7938
▁cupcake	-12.7948
▁steering	-12.7949
▁sill	-12.7955
▁Shelly	-12.7958
▁exploration	-12.7964
▁unpacking	-12.798
▁wealth	-12.798
▁self	-12.7988
▁tidying	-12.799
Henry	-12.8
▁troubles	-12.8005
▁snaps	-12.8007
œMaybe	-12.8009
▁jars	-12.8011
Danny	-12.8016
▁chatted	-12.802
▁Gracie	-12.8038
▁zooms	-12.8065
▁faint	-12.8068
▁conductor	-12.8069
▁Bonnie	-12.8069
udolph	-12.8077
▁Nora	-12.8078
▁matey	-12.8078
▁Say	-12.8083
▁gap	-12.8087
▁applause	-12.8094
▁hardest	-12.8124
▁healthier	-12.8126
▁stretches	-12.8127
▁dollar	-12.8132
ra	-12.8138
▁Belle	-12.8146
▁wiser	-12.8148
osa	-12.815
▁awful	-12.8168
▁dock	-12.8173
▁languages	-12.8181
▁wasting	-12.8199
▁dangers	-12.8208
▁plugged	-12.8208
man	-12.8215
▁crawls	-12.8222
▁wildflowers	-12.8225
▁Isn	-12.8225
▁chip	-12.8232
ccidents	-12.825
Someone	-12.8254
▁bluebird	-12.8259
▁overhead	-12.8275
▁traded	-12.8282
▁snug	-12.8282
▁squished	-12.8283
▁syrup	-12.8299
▁combed	-12.8308
▁carries	-12.831
▁container	-12.8311
▁shines	-12.8316
five	-12.8323
▁fascinating	-12.8324
▁scooters	-12.8327
▁rats	-12.8338
▁papa	-12.8358
▁beast	-12.8366
▁Tyler	-12.8376
▁Bad	-12.8377
▁killed	-12.8383
▁target	-12.8386
George	-12.8388
▁bothered	-12.8394
▁returning	-12.8396
▁novels	-12.8402
▁reminds	-12.841
▁court	-12.8417
▁providing	-12.8417
▁Immediately	-12.8425
▁flashing	-12.8428
œOk	-12.843
to	-12.8438
▁example	-12.8442
▁April	-12.8443
▁shorter	-12.8443
▁dears	-12.8451
L	-12.8454
▁floats	-12.8456
▁flashed	-12.8462
▁sprinkle	-12.8478
▁scrub	-12.8493
▁opinions	-12.8494
▁telescope	-12.8501
▁tearing	-12.8501
▁hotter	-12.8512
Peter	-12.8515
▁defeated	-12.8519
an	-12.8531
▁glided	-12.8544
▁grumbled	-12.8544
▁breaths	-12.8545
▁Another	-12.8545
▁inches	-12.8546
▁shorts	-12.8554
▁Peggy	-12.8563
▁surprising	-12.8569
▁expression	-12.8569
▁serving	-12.8578
▁suggest	-12.8589
▁picnics	-12.8598
▁Flora	-12.8621
▁L	-12.8629
▁sadder	-12.8634
▁Foxy	-12.8639
▁Andrew	-12.8639
▁moo	-12.864
▁seas	-12.8644
▁confidence	-12.8647
▁Carla	-12.8648
▁applauding	-12.865
ufus	-12.8655
▁convince	-12.8663
▁trusting	-12.8663
▁twenty	-12.8664
▁member	-12.867
▁Prince	-12.8674
▁leap	-12.8678
▁Bang	-12.8679
▁icing	-12.8681
▁cheated	-12.8691
▁Fairy	-12.8691
An	-12.8693
▁risk	-12.8695
œBe	-12.8698
Choo	-12.8704
▁visitor	-12.8707
▁Dino	-12.8716
▁robin	-12.8716
▁Duck	-12.8716
▁awhile	-12.8732
▁dryer	-12.8735
▁ramp	-12.8739
▁Melissa	-12.8743
▁Show	-12.8747
▁Wooly	-12.8751
lo	-12.876
▁erase	-12.8767
avi	-12.8768
▁teachers	-12.8777
▁statues	-12.8784
▁raising	-12.8785
▁petting	-12.8788
▁bride	-12.8794
▁collapsed	-12.8794
▁Boo	-12.8802
ful	-12.8805
▁experiences	-12.8806
▁adds	-12.8806
▁extraordinary	-12.8812
▁Annabelle	-12.8813
Nice	-12.8818
▁sway	-12.8819
▁inseparable	-12.882
▁weapons	-12.8826
▁checking	-12.883
▁blown	-12.8831
▁stroll	-12.8836
▁Tiger	-12.8841
▁kit	-12.8846
▁ghosts	-12.8848
▁tuck	-12.8851
▁burnt	-12.8852
▁instrument	-12.8853
▁munching	-12.8856
▁soapy	-12.8871
▁behaviour	-12.8891
▁born	-12.8891
▁tweet	-12.8892
▁Gabby	-12.8894
▁odd	-12.89
able	-12.8901
▁rains	-12.8904
▁grasshopper	-12.8917
▁imaginary	-12.8917
▁Liam	-12.8932
▁types	-12.8939
Boys	-12.8947
▁flock	-12.8953
▁puff	-12.8959
▁attitude	-12.8962
ita	-12.8984
▁flip	-12.8996
▁Barry	-12.8997
▁cubs	-12.9003
shaped	-12.9004
▁earn	-12.9007
▁Liza	-12.9009
▁puck	-12.9012
▁pops	-12.9012
▁trigger	-12.9015
▁Sun	-12.9023
▁shoo	-12.9031
▁sprang	-12.9033
▁choo	-12.9041
▁sirens	-12.9046
▁salon	-12.9051
▁peeped	-12.9051
ur	-12.9059
▁miracle	-12.906
▁opportunity	-12.9069
▁upside	-12.9069
na	-12.9089
▁conquered	-12.9096
▁traveling	-12.9099
▁Sparkles	-12.91
▁longest	-12.9113
▁distracted	-12.9115
▁Mona	-12.9115
▁whistles	-12.9138
▁Twinkle	-12.9142
▁meows	-12.9144
▁cheaper	-12.9153
▁hunting	-12.9154
▁sandy	-12.9156
▁deserved	-12.9164
▁tin	-12.9166
▁enemies	-12.9168
▁flowing	-12.9169
by	-12.9171
▁Oink	-12.9173
▁unable	-12.9178
▁wriggled	-12.9178
N	-12.9182
▁singers	-12.9188
▁coolest	-12.9193
▁minds	-12.9198
▁mommies	-12.9205
andy	-12.921
▁burns	-12.9222
▁Sky	-12.9224
So	-12.9229
▁umbrellas	-12.923
▁swimmer	-12.9241
▁bomb	-12.9241
▁burger	-12.925
▁Bert	-12.9253
▁Moo	-12.926
▁moat	-12.926
▁joins	-12.9272
▁clearly	-12.9276
▁discouraged	-12.9287
▁Never	-12.929
▁sprays	-12.929
▁Jody	-12.9306
▁compete	-12.9314
Mark	-12.9315
▁Willy	-12.9328
▁sometime	-12.9336
▁reappeared	-12.9343
▁Mel	-12.9346
▁chatting	-12.9352
▁countries	-12.937
▁passes	-12.9371
▁G	-12.9374
▁glittered	-12.9382
▁quacking	-12.9383
▁chin	-12.9386
▁Midnight	-12.9389
▁thorn	-12.9389
▁Lenny	-12.939
▁plug	-12.9399
▁tortoise	-12.9407
▁bounces	-12.9414
▁realizes	-12.9421
▁cheat	-12.9423
▁ability	-12.9427
ping	-12.944
▁Gray	-12.9445
▁annoying	-12.9454
▁patches	-12.9455
is	-12.9469
▁curl	-12.9472
Bobby	-12.9475
▁spilling	-12.9476
▁Candy	-12.9479
▁enjoyable	-12.9483
▁details	-12.9491
▁mattered	-12.9492
▁crystals	-12.951
▁common	-12.951
▁local	-12.952
▁crowded	-12.9522
▁whined	-12.953
il	-12.9532
▁cafe	-12.9548
Put	-12.9549
▁thicker	-12.9551
▁marking	-12.9555
▁sincere	-12.9556
▁checks	-12.9558
▁relaxing	-12.9579
▁races	-12.9587
▁Martin	-12.9589
▁yawning	-12.9591
▁cheerfully	-12.9602
ad	-12.961
▁soundly	-12.9612
▁chill	-12.9613
be	-12.9615
▁forgiven	-12.962
▁shallow	-12.9623
▁rows	-12.9639
▁surely	-12.9641
▁skies	-12.9643
▁swirl	-12.9643
▁Joanna	-12.9652
▁astronaut	-12.9664
▁formed	-12.9672
▁Mila	-12.9674
▁Looking	-12.9676
▁Paula	-12.9677
▁natural	-12.968
▁hood	-12.9681
▁tips	-12.9692
▁Nice	-12.9693
▁Through	-12.97
▁pills	-12.9703
▁bicycles	-12.9711
▁washes	-12.9712
▁vibrant	-12.9719
▁Jennie	-12.972
▁Again	-12.9733
▁noticing	-12.9738
▁bubbly	-12.9748
▁repairman	-12.9758
▁squeaky	-12.9758
▁treasured	-12.976
▁strips	-12.9764
▁BunBun	-12.9767
elvet	-12.9786
▁tests	-12.979
▁weighing	-12.9805
▁moonlight	-12.9806
sing	-12.9811
▁bits	-12.9822
▁aboard	-12.9833
▁prizes	-12.9851
▁stall	-12.9868
▁Yum	-12.9868
▁excite	-12.9873
▁certain	-12.9873
▁melody	-12.9874
▁outfits	-12.9878
▁sweaters	-12.9887
ma	-12.9887
▁teams	-12.9891
▁necks	-12.99
▁beam	-12.9916
ock	-12.9917
▁companion	-12.9922
Nina	-12.9933
▁compliment	-12.9937
▁blonde	-12.9937
▁sprout	-12.994
▁swirls	-12.9949
▁hummed	-12.9952
▁freezing	-12.9952
▁otters	-12.9956
▁pepperoni	-12.9971
▁bundle	-12.9972
▁messes	-12.9976
▁clue	-12.9987
▁satisfaction	-12.9991
▁Captain	-12.9993
▁lump	-13.0001
▁Monkey	-13.0006
▁calmer	-13.0007
▁scattering	-13.0007
▁Leah	-13.0011
▁squinted	-13.0011
▁understands	-13.0012
œYay	-13.0016
▁la	-13.0035
▁blushed	-13.0041
▁sipped	-13.0051
Dave	-13.0051
▁Ginger	-13.0052
▁hangers	-13.0055
▁cowboys	-13.0056
▁successfully	-13.0058
▁positive	-13.006
▁leaking	-13.0078
▁joyfully	-13.0082
▁coughed	-13.0083
▁uniforms	-13.0087
▁envelopes	-13.0087
Fluffy	-13.0091
▁grace	-13.011
▁fires	-13.0112
▁glittery	-13.0112
▁meatballs	-13.012
▁section	-13.012
▁smartest	-13.0135
▁engines	-13.0149
▁heaven	-13.0149
▁ankle	-13.015
▁scenery	-13.015
▁bruises	-13.0158
▁explaining	-13.0161
▁Whoever	-13.0165
▁shrug	-13.0166
▁rhino	-13.017
Bun	-13.0171
▁tickling	-13.018
us	-13.0184
▁scold	-13.0185
▁airplanes	-13.0192
▁fade	-13.0199
▁unfair	-13.02
▁Make	-13.021
Andy	-13.0217
▁snowy	-13.0219
▁answering	-13.0219
▁pressing	-13.0228
▁pinching	-13.024
▁welcoming	-13.0241
▁shattered	-13.0241
ah	-13.0246
▁Oliver	-13.0254
ng	-13.0257
Grandpa	-13.0262
▁blank	-13.0271
▁defeat	-13.028
▁burgers	-13.0281
Maggie	-13.0283
▁rewarding	-13.0284
▁hisses	-13.0285
▁Joan	-13.0289
▁rubbish	-13.0291
▁teapot	-13.0291
▁pantry	-13.0302
▁Jasmine	-13.0302
Hold	-13.0303
▁Choo	-13.0305
▁Fish	-13.0328
▁situations	-13.0329
▁rowing	-13.0349
▁practised	-13.0363
▁Playing	-13.0372
▁glance	-13.0373
For	-13.0375
▁playdate	-13.0383
▁intently	-13.0393
▁Over	-13.0395
▁Sunshine	-13.0405
▁talents	-13.0413
▁sturdy	-13.0424
▁locks	-13.0439
▁Chickie	-13.0445
▁groaned	-13.0445
F	-13.0451
▁embarrass	-13.0454
▁newspapers	-13.0454
hi	-13.0461
▁Hootie	-13.0466
▁Thankfully	-13.0466
Yesterday	-13.0468
beep	-13.0468
▁marveled	-13.0476
yle	-13.0479
▁minded	-13.048
▁ballerina	-13.0486
▁Mamma	-13.049
▁sneezes	-13.0491
ory	-13.0494
▁tempted	-13.0497
▁doorstep	-13.0497
▁sandpit	-13.0507
▁swallow	-13.0513
do	-13.0514
▁haircuts	-13.0529
Harry	-13.0541
▁stuffing	-13.0542
▁Bruce	-13.0549
▁angrily	-13.0549
▁pouch	-13.0549
▁whales	-13.0553
v	-13.0567
▁apology	-13.0569
▁unfamiliar	-13.0569
▁finishes	-13.0571
▁smoking	-13.058
▁Ash	-13.0584
▁bubbling	-13.059
▁fireflies	-13.059
▁microwave	-13.059
▁runner	-13.059
▁croaked	-13.0591
▁models	-13.0591
▁ketchup	-13.0601
▁Man	-13.0616
Open	-13.0625
▁beetles	-13.0626
▁tentacles	-13.0626
▁energetic	-13.0632
▁ma	-13.0639
iggy	-13.064
▁goodness	-13.0656
Ahoy	-13.0658
▁weighs	-13.0661
▁visits	-13.0665
▁Life	-13.0671
▁lookout	-13.0671
▁Yesterday	-13.0672
▁exchange	-13.0673
▁tugging	-13.0675
▁clutch	-13.0675
▁sweeter	-13.0681
▁spoiling	-13.0683
▁cherish	-13.0683
▁shyly	-13.0688
▁mugs	-13.0712
▁Magic	-13.0719
ling	-13.072
G	-13.0726
▁stepping	-13.0728
▁shrank	-13.0738
▁overwhelmed	-13.0749
▁strolled	-13.075
▁Elephant	-13.0753
▁watermelon	-13.0759
▁protection	-13.076
Achoo	-13.077
▁slapping	-13.077
ion	-13.077
▁cheating	-13.0771
Sandy	-13.0774
▁hesitation	-13.0781
▁bends	-13.0798
da	-13.0808
▁hum	-13.081
▁Felix	-13.0813
▁chopping	-13.0834
Benny	-13.0838
ri	-13.0841
ted	-13.0855
▁playhouse	-13.0863
▁height	-13.087
▁underwater	-13.0877
▁forts	-13.0895
▁gasps	-13.0902
▁tick	-13.0907
▁tunes	-13.0908
▁month	-13.091
ibbit	-13.0911
▁demanding	-13.0912
▁binoculars	-13.0913
▁bulbs	-13.0915
▁certainly	-13.0921
▁Wait	-13.093
Jake	-13.0935
▁hopscotch	-13.0942
Anytime	-13.0945
▁Does	-13.0954
▁slithered	-13.0964
id	-13.0968
▁cells	-13.0985
▁rewards	-13.0993
▁forgives	-13.0995
▁loyalty	-13.0996
as	-13.1006
▁bamboo	-13.1007
atty	-13.1011
▁disappointment	-13.1018
▁Fifi	-13.1019
▁cautious	-13.1029
▁Beep	-13.1032
▁pounced	-13.104
▁thump	-13.1042
iolet	-13.1051
▁peacock	-13.1051
▁transformed	-13.1051
▁Tear	-13.1052
▁hundred	-13.1052
▁fishy	-13.1054
▁Chuck	-13.1062
▁recess	-13.1062
▁Al	-13.1067
▁differently	-13.1072
▁nests	-13.1075
▁Peep	-13.108
▁Steven	-13.1083
▁Claus	-13.1084
▁riverbank	-13.1084
enny	-13.1084
▁unwrapped	-13.1095
of	-13.1102
uff	-13.1106
▁Cathy	-13.112
li	-13.1149
▁landing	-13.1152
ai	-13.1158
▁raking	-13.1161
ha	-13.1164
▁becomes	-13.1167
▁frustration	-13.1172
▁fries	-13.1172
▁invites	-13.1175
▁Other	-13.1184
▁cherished	-13.1184
▁spare	-13.1185
▁amused	-13.1194
▁whimpered	-13.1195
▁Mighty	-13.1196
▁icky	-13.1198
▁sweetly	-13.12
▁rips	-13.12
▁miller	-13.1209
▁Ant	-13.1212
Soon	-13.1215
▁snorted	-13.1217
▁napped	-13.1217
▁temptation	-13.125
▁teamwork	-13.1261
▁Gemma	-13.1262
▁Lot	-13.127
▁pilots	-13.1279
▁mayor	-13.1284
▁traps	-13.1288
œHow	-13.1301
▁scares	-13.1309
Charlie	-13.1311
▁communicate	-13.1317
▁ouch	-13.1327
▁current	-13.1329
▁thunderstorm	-13.1329
▁crocodiles	-13.133
▁Day	-13.1337
▁centre	-13.134
▁Allie	-13.1345
▁writer	-13.1348
▁Ms	-13.1371
▁Minnie	-13.1374
▁injured	-13.1374
▁Patrick	-13.1375
▁clip	-13.1378
▁mysteries	-13.1385
▁thieves	-13.1385
▁blades	-13.1388
▁Jon	-13.1389
▁whoosh	-13.1397
▁snapping	-13.1408
▁pipes	-13.1411
▁Birdie	-13.1411
▁lumberjack	-13.1419
Some	-13.1427
▁Mine	-13.1433
he	-13.1441
▁scene	-13.1446
▁stew	-13.1446
▁Share	-13.1449
▁M	-13.1451
▁charm	-13.1451
▁keyhole	-13.1454
▁Nate	-13.1457
▁boil	-13.1474
▁enemy	-13.1476
▁intelligence	-13.1488
▁choosing	-13.1488
▁auntie	-13.1489
▁birdy	-13.1499
▁nightmares	-13.1501
▁Bess	-13.1504
▁Wilbur	-13.1511
▁Tree	-13.1511
▁Marley	-13.1522
ainbow	-13.155
▁Carol	-13.1559
cat	-13.1562
▁hundreds	-13.1578
▁quest	-13.158
▁messages	-13.1588
▁level	-13.1591
▁banging	-13.1598
Abracadabra	-13.1603
▁Ouch	-13.162
James	-13.162
▁Super	-13.1628
▁Alan	-13.163
▁Avery	-13.1631
Honey	-13.1632
▁condition	-13.1637
▁Bambi	-13.1638
▁supporting	-13.164
▁benches	-13.1641
▁tantrum	-13.1649
▁weaker	-13.1654
▁rebuild	-13.1661
▁jobs	-13.1662
ina	-13.1685
▁Oscar	-13.1687
▁tickles	-13.1689
▁servant	-13.169
▁trading	-13.1696
▁wiggling	-13.1708
▁squeezes	-13.1714
▁chews	-13.1717
▁electricity	-13.1719
▁townspeople	-13.1719
▁leans	-13.1723
▁camel	-13.173
▁lush	-13.1731
▁shinier	-13.1731
▁luckiest	-13.1731
▁melons	-13.1734
▁swimsuits	-13.1742
▁alongside	-13.1743
▁jets	-13.1745
▁Josie	-13.1746
▁trusty	-13.1762
▁wrench	-13.1766
▁Jodie	-13.1766
▁levers	-13.1775
▁nicest	-13.1778
▁styles	-13.1796
Emma	-13.1796
Which	-13.1796
▁magnify	-13.1802
▁whine	-13.1807
▁pedaling	-13.1808
▁hissing	-13.1808
▁digs	-13.1814
▁softened	-13.1815
▁peak	-13.1826
▁robe	-13.1829
▁quarreled	-13.1846
▁mooed	-13.185
ce	-13.1853
▁kneeling	-13.1854
▁occasion	-13.1856
▁Johny	-13.1858
▁foggy	-13.1861
▁knit	-13.1872
▁toothbrush	-13.1873
▁reversing	-13.1873
▁heels	-13.1886
▁disappearing	-13.1896
▁foam	-13.1896
▁admit	-13.1897
▁astonished	-13.1897
▁seasons	-13.1897
▁pokes	-13.1904
▁Jonathan	-13.1909
▁warmed	-13.1927
Does	-13.193
▁Of	-13.1932
▁quilt	-13.1932
▁acts	-13.1934
▁textures	-13.1936
▁worst	-13.1944
▁boiling	-13.1958
▁Sandra	-13.1959
▁guarding	-13.1963
▁cooperate	-13.1968
▁Snow	-13.1975
▁munch	-13.1978
▁mindful	-13.1989
▁Carefully	-13.1992
▁Hopper	-13.1993
▁fetched	-13.1998
▁brains	-13.201
Two	-13.2012
▁continuing	-13.2017
▁compared	-13.2017
▁structures	-13.2027
▁sensation	-13.2029
▁Stanley	-13.2031
▁concerned	-13.2053
▁character	-13.2074
▁judges	-13.2079
▁dent	-13.2104
▁guards	-13.2104
▁revealing	-13.2105
▁improving	-13.2114
▁oldest	-13.2115
▁magically	-13.212
aven	-13.2126
▁Sweet	-13.2135
▁Buggy	-13.2138
▁lullaby	-13.2138
▁canvas	-13.2138
▁Peanut	-13.214
œO	-13.214
▁Brad	-13.215
▁cuddling	-13.215
▁wheelbarrow	-13.215
▁souvenir	-13.2159
▁realise	-13.2162
▁bowing	-13.2162
▁Hurry	-13.2166
▁poisonous	-13.2175
▁Buster	-13.2187
▁popping	-13.2187
▁Girl	-13.2191
▁bushy	-13.2195
▁blade	-13.2197
▁flow	-13.2197
▁embarrassing	-13.2201
▁crickets	-13.221
Bella	-13.222
œA	-13.222
▁boards	-13.2235
▁ho	-13.2244
Hurry	-13.2244
Deal	-13.2245
▁approach	-13.2247
▁Libby	-13.2249
▁aloud	-13.2249
▁disaster	-13.2249
▁guardian	-13.2249
▁craft	-13.2269
that	-13.2269
▁ding	-13.2274
ent	-13.2281
▁allowing	-13.2291
▁riddle	-13.2298
▁Thumper	-13.231
▁aroma	-13.231
▁coughing	-13.2315
▁cooled	-13.2318
œWelcome	-13.2326
▁drying	-13.2331
▁Gwen	-13.2336
ch	-13.2337
▁thumbs	-13.2337
▁Chirp	-13.2342
she	-13.2342
Danger	-13.2344
▁facing	-13.2348
▁Maisie	-13.236
▁cracker	-13.2366
▁larger	-13.2378
▁accomplish	-13.2384
▁throne	-13.2385
▁shh	-13.2389
First	-13.2394
▁heavily	-13.2398
▁dashed	-13.2398
▁spears	-13.2404
▁f	-13.2404
▁angrier	-13.2423
▁deeply	-13.2432
▁Lucas	-13.2443
Fire	-13.2445
▁sobbing	-13.2448
▁nearer	-13.245
▁Colin	-13.245
▁lifeguard	-13.2461
▁faith	-13.2473
▁''	-13.2477
Never	-13.2495
▁cages	-13.25
▁facts	-13.251
▁claw	-13.2519
▁express	-13.2523
▁completing	-13.2524
▁hollow	-13.2524
▁Summer	-13.2538
▁storms	-13.2548
▁property	-13.2549
▁realizing	-13.2549
▁circled	-13.2562
▁till	-13.2575
▁Patches	-13.2575
▁puppets	-13.2579
obin	-13.258
▁hips	-13.258
▁Ice	-13.2582
▁o	-13.2583
per	-13.2584
▁pump	-13.2586
▁wolves	-13.2588
▁flashes	-13.2588
▁drag	-13.2591
▁loudest	-13.2596
▁warmest	-13.26
▁hamster	-13.2601
▁whipped	-13.2601
po	-13.2601
▁repairing	-13.2603
▁Tomorrow	-13.2609
colored	-13.261
▁copied	-13.2613
▁Toto	-13.2614
œThanks	-13.2618
▁shrugs	-13.2618
▁caterpillars	-13.262
▁security	-13.2626
▁lava	-13.2626
▁plopp	-13.2629
Hmm	-13.2646
▁attempts	-13.265
▁pose	-13.2651
ba	-13.2663
▁waking	-13.2665
▁achievement	-13.2665
▁sleds	-13.2665
▁Jeremy	-13.2667
▁tow	-13.267
▁skirts	-13.2675
▁Ami	-13.2685
▁farmers	-13.2687
Daisy	-13.2687
▁costs	-13.2694
▁meadows	-13.2699
▁woodcutter	-13.2703
▁cousins	-13.2715
▁alley	-13.2716
▁spiky	-13.2716
▁Jennifer	-13.2717
▁sneaks	-13.2728
▁knobs	-13.273
▁honks	-13.2737
▁harmony	-13.2742
▁preschool	-13.2742
▁Pinchy	-13.2742
▁dozed	-13.2743
▁lunchtime	-13.2743
▁footprints	-13.2748
▁flooded	-13.2749
▁allowance	-13.2755
▁computers	-13.2757
▁pleasant	-13.2768
▁sooner	-13.2768
▁glared	-13.2768
▁tale	-13.2769
ey	-13.2774
▁savor	-13.2781
▁kayaking	-13.2782
œThere	-13.2786
▁cops	-13.2787
▁incredibly	-13.2794
▁moons	-13.2802
▁--	-13.2802
▁juiciest	-13.2807
▁builder	-13.2808
Every	-13.2818
▁invitations	-13.2818
▁calming	-13.2827
▁hooves	-13.2847
▁ticking	-13.2848
time	-13.285
▁learner	-13.2854
ani	-13.2857
▁shave	-13.2859
▁ill	-13.286
His	-13.2862
▁Deal	-13.2864
▁minding	-13.2866
▁caw	-13.2875
▁Bruno	-13.2887
▁otherwise	-13.2887
▁movement	-13.2889
Moo	-13.289
œWould	-13.2891
▁motorcycles	-13.2894
▁Math	-13.2894
▁scoops	-13.29
▁seatbelt	-13.2901
ies	-13.2905
▁gratefully	-13.2907
▁swapped	-13.2912
Nothing	-13.2918
▁glistening	-13.2926
▁bellies	-13.2926
▁hatched	-13.2929
▁seriously	-13.2934
Try	-13.2936
▁soda	-13.2937
▁Skip	-13.2943
▁booth	-13.2954
▁groom	-13.2965
▁Stan	-13.2987
Sitting	-13.2991
▁Flutter	-13.2992
▁Matthew	-13.2993
▁springing	-13.2998
▁Clare	-13.3005
▁theatre	-13.3006
▁absolutely	-13.3019
▁rider	-13.3033
▁Hank	-13.3035
▁possibilities	-13.3045
▁connect	-13.3057
▁Freya	-13.3059
▁strokes	-13.3063
▁kangaroos	-13.3063
▁repeats	-13.3064
▁Bea	-13.3069
▁persistence	-13.3086
▁sniffled	-13.3099
▁lever	-13.3102
▁Smoke	-13.3105
Pete	-13.3112
▁soothing	-13.3112
▁Could	-13.312
▁capture	-13.3125
▁daily	-13.3126
▁Woof	-13.3132
▁bumping	-13.3133
▁rinse	-13.3142
▁untangle	-13.3152
▁compromise	-13.3153
▁hatch	-13.3155
▁coop	-13.3157
▁lasted	-13.3165
▁ingredient	-13.317
Susie	-13.3178
▁Ha	-13.3179
ry	-13.318
▁bait	-13.318
▁stomp	-13.3182
▁blamed	-13.3194
œAre	-13.3197
▁trusts	-13.3206
▁huddle	-13.3209
▁smoothly	-13.321
▁wax	-13.3221
▁bathed	-13.3223
▁goggles	-13.3234
▁springtime	-13.3235
▁racer	-13.3237
▁passenger	-13.3252
▁caution	-13.3262
▁pollen	-13.3262
▁desperately	-13.3262
▁blooms	-13.3265
▁wrapper	-13.3266
▁speaker	-13.3269
▁Nurse	-13.3277
▁Panda	-13.3278
ni	-13.3283
Only	-13.3289
▁chili	-13.3289
▁floppy	-13.3289
▁uncovered	-13.3303
▁deciding	-13.3317
▁mesmerised	-13.3317
▁cupboards	-13.3318
▁Missy	-13.3322
▁recommendation	-13.3335
▁pounds	-13.3339
▁quacks	-13.3342
▁bolt	-13.3349
▁Things	-13.335
▁progress	-13.3358
▁stacking	-13.3361
Ooh	-13.3369
▁necessary	-13.3372
▁roamed	-13.3372
▁rails	-13.3379
▁process	-13.3386
▁Doctor	-13.3389
▁dolly	-13.339
▁introducing	-13.3399
▁magnificent	-13.3399
ched	-13.3412
▁cutest	-13.342
▁gates	-13.3421
▁medals	-13.3426
▁challenges	-13.3429
▁Pink	-13.3433
▁desperate	-13.3441
▁drill	-13.3441
▁headache	-13.3441
▁cooed	-13.3441
▁fooled	-13.3442
▁disobeyed	-13.3442
▁shoots	-13.3445
Baa	-13.3445
▁groups	-13.3446
▁stains	-13.3449
▁bats	-13.3453
▁piled	-13.3453
▁slam	-13.3455
▁obediently	-13.3465
▁babysitter	-13.3469
▁vinegar	-13.3469
▁undone	-13.3469
▁messed	-13.3484
▁rack	-13.3497
▁Bouncy	-13.3497
▁yummiest	-13.3499
Leo	-13.35
▁confusion	-13.3511
▁hovering	-13.3511
▁shooed	-13.3512
▁fond	-13.3512
shirt	-13.3516
▁date	-13.3519
▁Which	-13.3531
ation	-13.3538
▁co	-13.3538
W	-13.3538
▁allergic	-13.3539
▁purring	-13.3542
dy	-13.3556
▁kissing	-13.3556
▁kinder	-13.356
▁sleigh	-13.3567
▁gulped	-13.3568
▁Mumma	-13.3576
▁route	-13.3581
▁pecks	-13.3584
▁JoJo	-13.36
▁instincts	-13.3601
▁widely	-13.3603
▁laces	-13.3617
▁Years	-13.3618
▁wanna	-13.3624
▁pout	-13.3643
▁Moon	-13.3648
▁exhibit	-13.3652
▁charged	-13.3654
Tweet	-13.3666
▁greatest	-13.367
▁rinsed	-13.3682
▁Instantly	-13.3695
▁scratchy	-13.3698
usty	-13.371
▁silently	-13.371
▁Nicky	-13.3711
▁doggie	-13.3716
▁ostriches	-13.3724
▁loads	-13.3726
▁Lightning	-13.3727
▁floors	-13.3734
Isn	-13.3743
▁nibbling	-13.3752
▁Father	-13.3754
this	-13.3764
▁biscuit	-13.3774
og	-13.3778
▁lunchbox	-13.3781
▁Gogo	-13.3783
▁blur	-13.3795
▁Faith	-13.3795
▁tempting	-13.3795
▁Sean	-13.3795
▁depths	-13.3799
▁army	-13.3802
▁hangs	-13.3812
ol	-13.382
oy	-13.382
▁halves	-13.3824
▁snoring	-13.3824
Bless	-13.3825
▁lizards	-13.3831
▁creak	-13.3836
▁borrowing	-13.3838
▁squirted	-13.3839
▁flavour	-13.3843
▁performers	-13.3844
▁meaning	-13.3865
▁sacks	-13.3887
▁keen	-13.3897
▁Olly	-13.3898
▁Muffin	-13.3899
▁gladly	-13.39
▁speaks	-13.3923
▁rocky	-13.3923
fived	-13.3925
▁indoors	-13.3926
▁Otherwise	-13.3927
▁Greg	-13.3928
▁challenged	-13.3933
ub	-13.394
▁globe	-13.394
▁confidently	-13.3943
▁zips	-13.3946
▁musicians	-13.3955
▁gradually	-13.3955
B	-13.3956
▁carton	-13.3957
▁Was	-13.3963
▁listener	-13.3974
▁Off	-13.3974
▁Sleep	-13.3976
▁sweat	-13.3983
▁gummy	-13.3985
▁rotted	-13.3999
▁ages	-13.4022
▁drip	-13.4023
▁Lydia	-13.4043
▁rooster	-13.4043
▁prank	-13.4047
▁appearance	-13.4053
▁courageous	-13.4058
ac	-13.4062
co	-13.4066
▁sculpture	-13.4068
▁softest	-13.407
▁Puddles	-13.4073
▁Brother	-13.4077
▁gooey	-13.4084
▁shoelaces	-13.4093
▁Though	-13.4103
▁Billie	-13.4104
▁sets	-13.4104
▁Boy	-13.411
▁Tell	-13.4115
▁galloped	-13.4118
▁imaginations	-13.4119
▁toppings	-13.413
▁Books	-13.4142
▁J	-13.4148
▁tiring	-13.4162
▁Angel	-13.4166
Toby	-13.417
▁differences	-13.4172
ding	-13.4173
▁Want	-13.4175
▁c	-13.4179
▁steered	-13.4179
can	-13.418
▁tastiest	-13.4207
▁Noah	-13.4208
œWill	-13.4212
▁niece	-13.4222
▁soul	-13.4223
▁ladybird	-13.4224
▁sinking	-13.4234
▁crafts	-13.424
▁fuss	-13.4252
▁enclosure	-13.4253
▁plumber	-13.4253
▁Too	-13.4259
▁dumb	-13.4268
▁science	-13.4268
ir	-13.4274
▁freely	-13.4275
▁aprons	-13.4277
▁Dee	-13.4283
▁peacefulness	-13.4285
▁baa	-13.4294
ily	-13.4297
▁scrubbing	-13.4298
▁slot	-13.4313
▁hovered	-13.4313
▁Biggie	-13.4328
▁sparrow	-13.4328
▁crushed	-13.4328
▁boiled	-13.4329
▁mustn	-13.4333
▁webs	-13.434
▁Tia	-13.4342
▁Grumpy	-13.4344
▁Pick	-13.4348
▁pecking	-13.4361
▁stirs	-13.4363
▁hare	-13.4365
▁scrunched	-13.4374
▁guesses	-13.4375
▁Carly	-13.438
▁mashed	-13.439
▁risky	-13.439
▁brakes	-13.4391
Emily	-13.4391
▁snip	-13.4391
▁champion	-13.4405
▁Piggy	-13.4405
▁Ma	-13.4405
▁lilies	-13.442
▁Wolf	-13.4421
▁beeping	-13.4425
▁folds	-13.443
▁stroller	-13.4436
▁leaped	-13.4437
▁Mint	-13.4449
▁troll	-13.4451
look	-13.4452
Jump	-13.4452
Guess	-13.4453
▁earrings	-13.4457
▁bud	-13.4463
▁W	-13.4466
▁ashes	-13.4469
▁occasions	-13.4472
▁signal	-13.4472
▁lightly	-13.4481
▁Mousy	-13.4482
▁snuggling	-13.4482
▁Wisdom	-13.4491
▁dusted	-13.4496
▁compass	-13.4497
▁restoring	-13.4497
▁state	-13.4497
▁fashionable	-13.4497
▁pounding	-13.4497
▁hunger	-13.4498
▁hooks	-13.4499
▁stings	-13.4509
▁organised	-13.4513
▁caps	-13.4521
▁Doug	-13.4524
▁gorgeous	-13.4528
▁stinky	-13.4528
Paul	-13.453
▁feathered	-13.4532
▁macaroni	-13.4543
▁H	-13.4552
▁dripped	-13.4559
▁shortcut	-13.4559
Playing	-13.4562
▁valleys	-13.4574
▁department	-13.4575
▁regularly	-13.4584
▁experiment	-13.4586
▁petal	-13.4593
▁THEOnce	-13.4603
▁whiskers	-13.4606
▁halfway	-13.4606
▁host	-13.4607
▁softness	-13.4614
▁desks	-13.4616
▁carefree	-13.4623
▁files	-13.4632
▁venture	-13.4636
▁Ned	-13.4649
▁horrible	-13.4653
▁platform	-13.4653
œGo	-13.4663
▁desserts	-13.4665
▁majestic	-13.4669
▁service	-13.4669
▁unicorns	-13.4671
enthusiastically	-13.4681
▁interest	-13.4681
▁dump	-13.4681
▁whines	-13.4691
▁narrow	-13.4699
▁clubs	-13.4701
▁builders	-13.4702
œMummy	-13.4704
▁snowflake	-13.4715
▁alligators	-13.4718
ring	-13.4729
▁woken	-13.473
▁CD	-13.4731
▁mischief	-13.4732
▁brightened	-13.475
▁guided	-13.4751
▁laws	-13.4763
like	-13.4767
▁ordering	-13.4772
▁designer	-13.4778
▁bold	-13.4779
▁shaky	-13.4779
▁Nature	-13.4783
▁Monster	-13.4783
ive	-13.4791
▁disagreement	-13.4795
▁length	-13.4795
▁Audrey	-13.4811
▁comets	-13.4824
▁nightstand	-13.4829
▁deserves	-13.4831
▁lantern	-13.4834
▁information	-13.4859
▁scowled	-13.4859
ier	-13.4865
▁purchase	-13.4874
▁Caroline	-13.4875
▁Joseph	-13.4878
▁Squeak	-13.4897
athy	-13.49
▁rightful	-13.4912
▁Joanne	-13.4924
▁Pearl	-13.4924
ippy	-13.4931
▁honeycomb	-13.494
▁Mac	-13.4941
▁unlocking	-13.4942
▁pace	-13.4945
▁community	-13.4956
▁Turtle	-13.4958
▁ribbit	-13.4959
▁fright	-13.4971
▁squawk	-13.4972
▁exercising	-13.4972
▁overheard	-13.4972
bo	-13.4982
▁actors	-13.4985
▁displaying	-13.4987
▁invisible	-13.4988
▁winners	-13.4994
▁praise	-13.5005
▁Wiggly	-13.5005
▁cinema	-13.5005
▁sweetness	-13.5012
▁crunch	-13.5018
▁spice	-13.502
tock	-13.5023
▁chains	-13.5024
▁Toys	-13.5028
▁Spark	-13.5036
▁Nut	-13.5037
▁automobiles	-13.5058
ich	-13.506
▁mate	-13.5062
ow	-13.5066
▁cheetah	-13.507
▁twelve	-13.507
▁proved	-13.5073
▁Puppy	-13.5075
▁hippos	-13.508
▁nudged	-13.5087
▁Isabella	-13.5103
▁boarded	-13.5132
ci	-13.5134
▁poop	-13.5136
▁hates	-13.5142
▁batch	-13.5147
▁competing	-13.5152
▁mound	-13.5152
osy	-13.5153
ball	-13.5158
▁devastated	-13.5169
▁mats	-13.5172
▁contained	-13.5176
▁disobey	-13.5183
▁dedication	-13.5185
▁Gail	-13.5185
▁untangled	-13.5187
clock	-13.519
▁striking	-13.5202
▁panting	-13.5208
▁dining	-13.5218
▁solid	-13.5218
▁frightening	-13.5219
▁heights	-13.522
land	-13.5221
Tina	-13.5223
▁funniest	-13.5235
▁deck	-13.5235
▁damp	-13.5238
▁trailer	-13.5239
Enjoy	-13.524
all	-13.5249
▁entering	-13.5249
▁enchanted	-13.5252
▁frisbee	-13.5252
▁lighting	-13.5258
▁anybody	-13.5263
▁atmosphere	-13.5268
▁zookeepers	-13.527
▁mend	-13.5272
Fred	-13.5273
▁Marcy	-13.5285
me	-13.5288
▁whe	-13.5289
▁pearls	-13.53
▁thrill	-13.53
▁Bernie	-13.5319
▁farthest	-13.5319
▁Taylor	-13.532
▁tingle	-13.532
▁Susy	-13.532
if	-13.532
▁respond	-13.5333
▁shimmered	-13.5336
▁Lea	-13.5339
▁Ostrich	-13.5352
▁carnival	-13.5352
▁Chicky	-13.5352
▁pancake	-13.5356
▁scores	-13.5359
▁Hi	-13.536
▁mushy	-13.5369
▁priest	-13.5386
▁nuggets	-13.539
Lola	-13.5391
▁servants	-13.5394
▁Flash	-13.5403
▁backward	-13.5404
▁totally	-13.5404
▁sleeve	-13.5407
▁strum	-13.542
▁carousel	-13.542
▁managing	-13.542
sorry	-13.5425
▁pads	-13.5427
▁doves	-13.5435
▁launch	-13.5436
▁Copper	-13.5438
Ice	-13.5444
▁fiercely	-13.5449
▁crispy	-13.5454
▁Down	-13.5455
▁Old	-13.5461
▁invention	-13.5471
eading	-13.5474
▁Friend	-13.5498
▁presence	-13.5505
▁rumbled	-13.551
why	-13.551
z	-13.5515
▁blessed	-13.5523
▁squawked	-13.5523
▁antlers	-13.5526
▁popsicle	-13.5527
ul	-13.5527
believe	-13.5528
▁hoses	-13.5529
▁maps	-13.5531
▁cruel	-13.5539
▁howl	-13.5547
▁squish	-13.5554
▁birdseed	-13.5557
▁nations	-13.5558
▁stacks	-13.5561
mo	-13.5563
don	-13.5576
▁reaction	-13.5591
▁Matty	-13.5594
▁Shadow	-13.5594
œMe	-13.5598
▁peels	-13.5601
▁royal	-13.5608
▁Greta	-13.5608
▁wig	-13.561
▁taps	-13.5611
▁smoother	-13.5618
light	-13.562
▁shots	-13.5623
▁ducklings	-13.5625
▁energized	-13.5626
▁Jemma	-13.5627
▁bill	-13.5631
▁Mara	-13.5643
▁considerate	-13.566
▁twitched	-13.5661
œWait	-13.5666
▁correct	-13.5677
▁reality	-13.5679
les	-13.5688
▁Turn	-13.5689
▁addition	-13.5693
▁scrape	-13.5694
▁commotion	-13.5695
▁threatened	-13.5695
▁nets	-13.5695
elsey	-13.5713
▁tripping	-13.5714
ca	-13.5716
▁oars	-13.5723
▁dips	-13.5726
▁practising	-13.573
▁code	-13.573
▁handlebars	-13.5737
▁wrecked	-13.5738
▁attaching	-13.5746
▁Open	-13.576
▁Ch	-13.5762
▁Goldie	-13.5765
▁braid	-13.5771
▁peeks	-13.5773
Whoa	-13.5782
▁tongues	-13.5786
▁homeless	-13.5786
▁Ellen	-13.5786
▁Jimbo	-13.5788
▁palms	-13.58
▁ceremony	-13.58
▁skinny	-13.5801
▁delightful	-13.5801
▁Heidi	-13.5803
▁sickness	-13.5804
▁ripples	-13.5805
Beware	-13.5807
▁workshop	-13.5818
▁Yoga	-13.5825
▁atop	-13.5839
▁Willie	-13.5841
J	-13.5842
▁Play	-13.5845
Y	-13.5858
▁elders	-13.5866
▁blame	-13.587
▁grumble	-13.587
▁furious	-13.5871
▁calf	-13.5871
▁spied	-13.5871
so	-13.5872
▁rags	-13.5872
▁seeking	-13.5873
age	-13.5876
▁Eve	-13.5877
▁hind	-13.5887
▁Isla	-13.5887
▁loneliness	-13.5889
▁studies	-13.5889
▁chattered	-13.5889
▁swirled	-13.589
▁hoof	-13.5907
ish	-13.5911
▁Thunder	-13.5913
▁Pop	-13.5918
▁p	-13.592
▁crouche	-13.5922
▁helicopters	-13.5924
▁Confused	-13.5924
▁gliding	-13.5924
▁polka	-13.5924
▁supermarket	-13.5924
▁urging	-13.5924
sh	-13.5931
▁runny	-13.5946
▁Friendship	-13.5946
▁winks	-13.5953
▁Nia	-13.596
Make	-13.5967
▁suggests	-13.5969
▁online	-13.597
▁supplying	-13.5974
ned	-13.5977
▁campsite	-13.5978
▁neighed	-13.5979
▁Alfie	-13.598
▁clothing	-13.5983
Mittens	-13.5985
▁sneaking	-13.5989
▁injuries	-13.5996
▁Cars	-13.5998
▁dives	-13.6012
▁impress	-13.6013
▁dustpan	-13.6032
▁painful	-13.6039
▁yuck	-13.6041
▁Paws	-13.6043
▁Anytime	-13.6044
▁saddle	-13.6044
▁bounded	-13.605
▁stained	-13.6053
▁Mole	-13.6055
▁freshly	-13.6061
▁Nibbles	-13.6068
▁pudding	-13.6068
▁swirling	-13.607
▁Bailey	-13.607
▁avoided	-13.6072
▁rods	-13.6074
▁horror	-13.6086
▁porridge	-13.6086
▁pitcher	-13.6089
▁Cow	-13.6092
▁possession	-13.6095
▁scaly	-13.6104
▁connection	-13.6104
▁lurking	-13.6104
▁Oak	-13.6105
▁weights	-13.6118
▁Jump	-13.6118
▁darted	-13.6123
▁Timothy	-13.6125
ck	-13.6134
▁Alison	-13.6141
▁aback	-13.6142
▁roller	-13.6155
▁Margaret	-13.6159
Polly	-13.6167
▁journeys	-13.6168
igzag	-13.6177
▁tumbling	-13.6177
▁rustle	-13.6195
▁fans	-13.6202
▁Orange	-13.622
▁twirls	-13.6221
▁device	-13.6232
▁Gilly	-13.6233
▁Dragon	-13.6238
▁Flop	-13.6239
Shoo	-13.6244
creams	-13.6255
▁Sundays	-13.6264
ment	-13.6269
▁Crusty	-13.6269
▁attendant	-13.6269
▁voyage	-13.6269
▁Paw	-13.6277
▁solutions	-13.6278
ble	-13.6291
Sleep	-13.6296
▁Wilma	-13.6325
▁dodging	-13.6325
▁Layla	-13.6327
▁Pig	-13.6329
▁Justin	-13.6331
▁pals	-13.634
▁resisting	-13.6347
▁hurtful	-13.6348
▁Purple	-13.6349
▁offers	-13.6352
▁Find	-13.6358
œHere	-13.6358
▁knitting	-13.6362
▁hammering	-13.6377
▁glows	-13.6378
▁raked	-13.6379
▁explode	-13.639
▁La	-13.6396
▁harvest	-13.6397
▁Chip	-13.6401
▁disagreeing	-13.6406
▁Cheese	-13.6415
▁tutu	-13.6418
▁discussion	-13.6418
▁carve	-13.6419
▁snowing	-13.642
▁carriage	-13.6437
▁stormy	-13.6446
Mira	-13.6446
▁fully	-13.6454
Shrink	-13.6456
▁Arthur	-13.6457
œMum	-13.646
œJohn	-13.646
▁grandkids	-13.646
▁wetter	-13.6461
▁clips	-13.6468
Working	-13.6476
▁tightened	-13.6476
▁Carrie	-13.6476
Cool	-13.648
▁Snap	-13.6482
▁Scott	-13.6493
▁handles	-13.6495
▁oceans	-13.6497
Bird	-13.6502
▁scar	-13.6509
▁Duke	-13.6513
▁squirmed	-13.6513
▁Albert	-13.6514
▁perch	-13.6519
▁Johnnie	-13.6521
ig	-13.6521
▁Yellow	-13.6537
▁speedy	-13.6539
▁Po	-13.6541
▁Faye	-13.6551
▁musical	-13.6569
▁Frustrated	-13.6569
▁slightly	-13.6569
▁protector	-13.6572
Everyone	-13.6578
ally	-13.6581
▁dumped	-13.6589
▁Eating	-13.6593
▁Cuddles	-13.6593
▁Willow	-13.6594
Something	-13.6598
▁possessions	-13.6598
▁performer	-13.6605
▁Flappy	-13.6607
▁disgusted	-13.6608
▁Bop	-13.6608
▁Most	-13.6608
▁armor	-13.6611
▁Chess	-13.6611
▁pairs	-13.662
▁Lu	-13.6623
▁recipes	-13.6625
▁reappear	-13.6626
▁pedalled	-13.6627
▁N	-13.664
▁soggy	-13.6646
ug	-13.6647
▁Mick	-13.6649
▁winking	-13.6652
▁distract	-13.6663
▁glimmer	-13.6663
▁potty	-13.6665
▁vests	-13.6666
▁spoken	-13.667
▁jumper	-13.6687
▁hideout	-13.6698
▁wobbles	-13.6699
▁projects	-13.6701
▁stiff	-13.6703
▁Jolly	-13.6703
▁settling	-13.6703
From	-13.6713
▁lasers	-13.6715
▁Ivy	-13.6723
▁habit	-13.6736
▁racers	-13.6738
▁pizzas	-13.675
▁gardening	-13.6751
▁streaming	-13.6756
▁rink	-13.6761
▁begun	-13.6761
▁gruff	-13.6762
▁puffed	-13.6763
▁Alexa	-13.6766
▁blob	-13.6769
ous	-13.6776
ine	-13.6777
▁unkind	-13.6781
▁Janice	-13.6781
▁ray	-13.6782
▁sly	-13.6787
▁surrounding	-13.6795
▁grandchildren	-13.68
▁studio	-13.68
ped	-13.6809
▁Close	-13.6816
▁threads	-13.6817
ity	-13.6818
▁glistened	-13.682
▁riches	-13.6825
▁embrace	-13.6838
▁Fishy	-13.684
▁granny	-13.6859
▁double	-13.6859
▁smoothie	-13.6865
œBecause	-13.6865
▁More	-13.6877
▁Charles	-13.6878
▁carved	-13.6879
▁Fly	-13.6881
smelling	-13.6889
▁gorillas	-13.6898
Dog	-13.6898
▁woodpecker	-13.6898
▁sculptures	-13.6905
▁spirits	-13.6916
▁unload	-13.6916
▁plow	-13.6918
▁Jumpy	-13.6918
▁quicker	-13.6922
▁owning	-13.6923
ky	-13.693
▁obstacles	-13.6932
hearted	-13.6933
▁Petey	-13.6934
um	-13.6938
▁contentment	-13.6938
espect	-13.6944
Mike	-13.6948
▁beaks	-13.6951
▁suitcases	-13.6953
▁Bree	-13.6957
▁cloths	-13.6958
▁Crab	-13.6961
▁scooping	-13.6966
▁parking	-13.6972
▁pavement	-13.6977
▁values	-13.6987
▁tales	-13.6996
▁Nelly	-13.6997
▁floaty	-13.7001
ari	-13.7003
▁scientists	-13.7005
▁clover	-13.7017
rd	-13.7022
ge	-13.7023
▁tours	-13.7026
▁croak	-13.703
▁adventurers	-13.7032
▁Surprised	-13.7037
▁squeal	-13.7055
red	-13.7056
▁pounce	-13.7056
▁autumn	-13.7057
▁snarled	-13.7057
line	-13.7062
▁ruled	-13.7063
▁exams	-13.707
▁shame	-13.7077
▁squirt	-13.7078
▁Lauren	-13.7078
▁Dylan	-13.708
▁outcome	-13.7092
▁arrested	-13.7097
▁lumpy	-13.7097
her	-13.7112
▁reckless	-13.7116
pa	-13.712
▁interrupted	-13.7137
▁tents	-13.7151
▁jeans	-13.7157
▁refusing	-13.7157
▁Wise	-13.716
▁jogger	-13.7174
▁beg	-13.7174
▁steaming	-13.7174
▁pail	-13.7177
▁scolding	-13.7179
▁mixes	-13.718
▁Sid	-13.7185
Silly	-13.7189
▁holidays	-13.7194
▁explanation	-13.7197
▁equally	-13.7198
▁payoff	-13.7198
▁massages	-13.72
▁buckles	-13.7206
Wake	-13.7209
▁vast	-13.7218
▁Furry	-13.7219
▁lovingly	-13.7221
Trust	-13.723
▁Spanish	-13.7238
▁Gia	-13.7238
▁creepy	-13.7238
olly	-13.7241
▁skips	-13.7244
▁hammered	-13.7247
▁Lexi	-13.7258
▁partner	-13.7259
œHelp	-13.7275
▁thoughtfully	-13.7277
▁suspicious	-13.7278
▁Ada	-13.728
▁nightfall	-13.728
▁tingling	-13.7299
▁mailing	-13.7313
▁boulder	-13.732
▁godmother	-13.732
▁scribbled	-13.732
▁Gerry	-13.7322
▁begs	-13.7324
▁respecting	-13.7328
Magic	-13.7332
ot	-13.7336
▁bobbed	-13.734
▁saxophone	-13.734
▁abandoned	-13.734
▁Benjamin	-13.7341
▁tanks	-13.7352
ag	-13.7354
More	-13.7354
▁jaws	-13.7356
▁terribly	-13.7361
ace	-13.7362
▁patting	-13.7362
▁witches	-13.7384
▁Cleaning	-13.7387
▁Car	-13.7391
▁fist	-13.74
▁Jam	-13.7409
ap	-13.7414
Everything	-13.7414
▁extremely	-13.7423
▁joyous	-13.7425
▁spelling	-13.7425
▁curves	-13.7443
▁Near	-13.7444
▁trudged	-13.7444
▁undo	-13.7444
▁exchanged	-13.7446
de	-13.7461
▁instant	-13.7464
▁Melody	-13.7464
▁ruffled	-13.7464
▁chirps	-13.7466
ke	-13.7484
▁juggling	-13.7485
▁sells	-13.7485
▁misty	-13.7492
cy	-13.75
▁Nan	-13.7502
ley	-13.7504
ning	-13.7504
▁accepting	-13.7505
▁charity	-13.7506
▁independence	-13.7506
▁cluck	-13.7507
▁stretchy	-13.7516
▁swat	-13.7527
▁sweeping	-13.753
▁litter	-13.7534
▁escaping	-13.7548
ice	-13.7572
▁Much	-13.7574
op	-13.7582
▁chooses	-13.7589
▁Angie	-13.759
▁captured	-13.7592
▁Spirit	-13.7592
▁splitting	-13.7596
▁Cookies	-13.7596
▁sleeps	-13.76
▁somehow	-13.7601
Sharing	-13.7604
▁succeeding	-13.7606
▁position	-13.7611
Friends	-13.762
Hop	-13.7624
▁stomachs	-13.7625
▁Birds	-13.7627
obot	-13.7643
▁disappears	-13.7645
off	-13.7651
▁dries	-13.7654
▁harmful	-13.7654
▁unloaded	-13.7654
▁stomping	-13.7655
▁Elizabeth	-13.7675
▁roam	-13.7694
▁hoo	-13.7695
▁peculiar	-13.7696
▁bare	-13.7703
▁chewy	-13.7708
pe	-13.7711
▁spaces	-13.7716
ichard	-13.7717
▁lifetime	-13.7719
▁crouch	-13.772
▁reader	-13.7723
▁Boom	-13.773
filled	-13.7732
▁capes	-13.7738
▁complicated	-13.7739
▁strummed	-13.7739
▁stripe	-13.7741
▁raises	-13.7749
▁yawns	-13.7749
Lena	-13.7753
▁Africa	-13.776
▁Hugo	-13.776
▁flyer	-13.7774
▁curve	-13.7781
▁guilt	-13.7781
▁Percy	-13.7782
▁Dora	-13.7788
▁b	-13.7794
▁journeyed	-13.7795
Should	-13.7795
okay	-13.7796
ka	-13.78
rs	-13.78
▁wicked	-13.7803
▁pendant	-13.7803
▁proceed	-13.7803
▁site	-13.781
▁railing	-13.782
▁buddies	-13.7825
▁fishermen	-13.7825
H	-13.7835
▁erasers	-13.7835
Cat	-13.7841
▁kindest	-13.7843
▁grains	-13.7858
▁fail	-13.7866
▁compare	-13.7867
▁volcanoes	-13.7869
▁accidently	-13.7873
▁tucks	-13.7874
▁Blink	-13.7889
▁panicking	-13.789
▁Afterward	-13.7895
bird	-13.7896
▁richer	-13.7898
▁juggle	-13.7909
▁quizzes	-13.7911
▁strict	-13.7911
▁quarrelling	-13.7912
war	-13.7914
ster	-13.7916
▁blush	-13.7931
▁defend	-13.7931
▁wrinkly	-13.7933
▁mast	-13.7951
▁Nei	-13.7955
▁Yet	-13.7955
▁tightrope	-13.7955
▁sneakers	-13.7955
▁concentrated	-13.7956
▁White	-13.7957
py	-13.7957
▁wiggles	-13.7959
▁loosen	-13.7972
▁arrange	-13.7976
▁North	-13.7977
▁wriggling	-13.7977
▁zig	-13.7977
Poppy	-13.7992
▁subjects	-13.7994
▁Otto	-13.7999
aring	-13.8001
fi	-13.8021
▁fights	-13.8027
Move	-13.803
▁handy	-13.8033
▁abilities	-13.8043
▁squashes	-13.8044
iness	-13.8049
▁stares	-13.8052
▁sung	-13.8059
▁concentrate	-13.8064
▁Jules	-13.8065
▁separating	-13.8065
stop	-13.8078
Hooray	-13.808
▁droplets	-13.8087
▁lobby	-13.8087
▁pineapple	-13.8087
▁supportive	-13.8087
▁crosses	-13.809
▁anyways	-13.8093
▁stretcher	-13.8098
Blue	-13.8103
ist	-13.8114
▁Maxine	-13.8121
Grow	-13.8126
▁waitress	-13.8131
▁hopeless	-13.8134
▁Miles	-13.8135
ino	-13.8137
.'"	-13.8138
cu	-13.8138
▁snuggles	-13.8142
True	-13.8147
▁Jasper	-13.8154
▁grinning	-13.8154
œStop	-13.8154
▁attempt	-13.8155
▁sleepover	-13.8163
▁rattle	-13.8175
▁glimpse	-13.8176
▁dialed	-13.8177
▁curved	-13.8177
▁striped	-13.8186
▁zigzags	-13.819
▁wrappers	-13.8191
▁Singing	-13.8199
▁Bethany	-13.8201
▁cigarette	-13.8201
▁fading	-13.8221
▁scuttled	-13.8221
▁Nathan	-13.8222
▁crunching	-13.8222
▁Piper	-13.8223
▁strolling	-13.8224
▁Diana	-13.8224
▁sealed	-13.8227
▁showers	-13.824
▁approval	-13.8243
▁unfolded	-13.8244
▁West	-13.8244
▁Nellie	-13.8245
▁flowed	-13.8245
▁Sister	-13.8248
va	-13.8251
free	-13.8257
Whenever	-13.8258
eyed	-13.8262
▁raincoats	-13.8262
▁packet	-13.8266
▁detective	-13.8269
▁flippers	-13.8275
▁hurrying	-13.8276
Close	-13.8282
▁moderation	-13.8288
▁scooted	-13.8288
▁cutter	-13.8296
▁conversations	-13.8302
▁numbered	-13.8311
▁flakes	-13.8311
▁liar	-13.8311
▁staircase	-13.8311
▁Anya	-13.8311
▁Catty	-13.8311
▁skate	-13.8313
▁dodge	-13.8314
▁Music	-13.8316
▁stitched	-13.8319
▁swoop	-13.8332
▁envy	-13.8334
Careful	-13.8334
▁overflowing	-13.8334
j	-13.835
▁crust	-13.8352
▁sandals	-13.8356
œMama	-13.8365
▁Mister	-13.837
▁Shall	-13.8371
▁chicks	-13.8373
▁bleeds	-13.8375
▁posters	-13.8378
▁Marty	-13.8379
▁Simba	-13.8379
▁Stephanie	-13.8379
ec	-13.8381
▁contents	-13.8389
▁motions	-13.839
good	-13.84
▁whisk	-13.8401
▁favor	-13.8402
▁Ernie	-13.8405
▁bruise	-13.8405
▁coconut	-13.8406
▁importantly	-13.8413
Three	-13.8419
▁strikes	-13.8421
oxy	-13.8422
▁nursery	-13.8425
▁fourth	-13.8426
Dan	-13.8428
▁Juice	-13.8431
▁pickles	-13.8437
ward	-13.844
▁brighten	-13.8441
▁Peek	-13.8441
▁trunks	-13.8443
▁grumbling	-13.8448
▁lectures	-13.8458
▁playfully	-13.846
▁Spider	-13.8465
▁cinnamon	-13.8471
▁shuffled	-13.8471
▁clucked	-13.8472
▁rustled	-13.8472
▁Prune	-13.8476
▁Jade	-13.8494
▁speck	-13.8494
▁leaping	-13.8497
▁Should	-13.8502
▁vitamins	-13.8504
▁biscuits	-13.8504
▁Land	-13.8518
▁Toni	-13.8528
▁Pa	-13.8533
Ella	-13.8534
Bunny	-13.8534
▁forced	-13.8535
▁farewell	-13.854
ho	-13.854
▁Angela	-13.854
▁streak	-13.854
mi	-13.8541
▁layer	-13.8549
▁Lo	-13.855
▁snatch	-13.8553
bi	-13.8553
▁owls	-13.8553
▁kneels	-13.8554
▁Stretch	-13.8562
▁Sal	-13.8562
▁honor	-13.8562
car	-13.8563
▁thirst	-13.8563
▁Monica	-13.8566
▁boomed	-13.857
▁grownups	-13.8576
Lilly	-13.8581
▁dodges	-13.8583
▁chugged	-13.8586
▁nephew	-13.8586
▁contentedly	-13.8587
▁passion	-13.8587
▁Ding	-13.8587
▁setup	-13.8593
▁loser	-13.8599
▁Anything	-13.8599
▁smash	-13.8608
▁snore	-13.8609
▁collage	-13.861
▁firewood	-13.861
▁spades	-13.8611
▁stalks	-13.8618
▁limits	-13.8625
▁seated	-13.8625
▁curls	-13.863
▁streams	-13.8632
▁ecstatic	-13.8633
▁orchard	-13.8633
▁Bright	-13.8633
▁bled	-13.8633
▁timidly	-13.8634
▁tiptoes	-13.8638
▁events	-13.8639
▁requests	-13.8643
▁Li	-13.8647
come	-13.8648
▁Crystal	-13.8657
Say	-13.8657
epeat	-13.8657
▁hardworking	-13.8659
gi	-13.8666
▁aisles	-13.8678
▁stems	-13.8679
▁Skelly	-13.868
▁excellent	-13.868
▁stunning	-13.868
▁snipped	-13.868
▁fists	-13.8682
▁training	-13.8683
mon	-13.8686
▁warming	-13.8695
May	-13.8698
▁sleeves	-13.8699
▁bead	-13.8703
▁timid	-13.8703
▁nanny	-13.8704
▁Marcus	-13.8704
▁thinner	-13.8704
▁inspected	-13.8704
▁Small	-13.8706
œyou	-13.8706
ru	-13.8708
▁Manny	-13.8708
▁crumb	-13.871
▁missiles	-13.871
▁obstacle	-13.871
Mimi	-13.8722
ak	-13.8726
▁glide	-13.8726
nderneath	-13.8727
▁bobbing	-13.8727
▁cheesy	-13.8727
▁tiara	-13.8727
▁descended	-13.8727
▁switches	-13.8729
Mmmm	-13.8748
▁Gradually	-13.8751
▁stunned	-13.8751
▁Emmie	-13.8751
▁outer	-13.8752
ake	-13.8758
▁appears	-13.8764
iest	-13.8771
▁pe	-13.8774
▁cities	-13.8774
▁banks	-13.8793
aylee	-13.8798
œJust	-13.8801
▁goo	-13.8814
▁surrendering	-13.8817
▁Dizzy	-13.8822
▁guidance	-13.8822
▁begging	-13.8822
▁behold	-13.8822
▁ogre	-13.8822
▁fulfilled	-13.8822
▁fitting	-13.8823
▁elder	-13.8829
▁neigh	-13.8834
Lia	-13.8844
▁wondrous	-13.8846
▁surprisingly	-13.8847
▁Imagine	-13.8848
▁Erin	-13.8849
Ahh	-13.8855
ound	-13.8855
▁Pup	-13.8871
▁clothesline	-13.8872
▁antennae	-13.8894
œDaddy	-13.8898
▁combing	-13.8903
Sophie	-13.8913
▁Dina	-13.8918
▁Michelle	-13.8918
▁tickly	-13.8919
hand	-13.8921
arl	-13.8931
▁drags	-13.8935
▁slither	-13.894
▁unlike	-13.8942
▁confusing	-13.8942
▁zippers	-13.8946
▁poles	-13.8961
▁Paige	-13.8966
▁Hour	-13.8966
▁shields	-13.8968
▁guarded	-13.8972
▁Eat	-13.8989
▁exact	-13.899
▁balcony	-13.899
▁wobbling	-13.899
▁experiments	-13.8993
▁skating	-13.8993
▁anxiously	-13.9004
▁targets	-13.9006
Writing	-13.9015
aitlyn	-13.9015
▁resumed	-13.9015
▁shoreline	-13.9015
▁None	-13.9016
▁ballet	-13.9018
ail	-13.9018
▁Amen	-13.9024
uit	-13.9027
▁Believe	-13.9029
Got	-13.9032
▁Burt	-13.9039
▁cursed	-13.904
▁pastor	-13.9041
▁Jelly	-13.9042
▁deeds	-13.9044
▁mustaches	-13.9052
▁Fran	-13.9059
▁chatter	-13.9061
▁stylish	-13.9063
x	-13.9069
▁cracking	-13.9072
▁Win	-13.9077
▁acrobats	-13.9078
▁screech	-13.9086
▁salsa	-13.9088
▁securely	-13.909
ving	-13.9093
Momma	-13.9095
ance	-13.91
▁newly	-13.91
▁Beary	-13.9103
▁options	-13.9107
▁promising	-13.9112
▁tippy	-13.9113
▁roasted	-13.9113
▁vacuum	-13.9136
placing	-13.9137
▁toothpaste	-13.9137
▁Ginny	-13.9137
▁unzip	-13.9137
▁melts	-13.9138
▁greater	-13.9139
ian	-13.9143
▁Drop	-13.9149
▁tablecloth	-13.9162
▁Cream	-13.9164
▁Peace	-13.9165
▁Jenn	-13.9166
▁delaying	-13.9179
coloured	-13.9182
▁Hanna	-13.9186
▁barbecue	-13.9186
▁captivated	-13.9186
▁Edward	-13.9186
▁replacing	-13.9186
▁background	-13.9189
lu	-13.919
▁phones	-13.92
▁sicker	-13.9206
wow	-13.9207
▁adventurer	-13.9214
indness	-13.9224
ant	-13.9231
▁Meow	-13.9233
▁Mason	-13.9236
▁Surprisingly	-13.9236
▁emergencies	-13.9236
▁lens	-13.9236
▁props	-13.9242
▁Doing	-13.9251
▁sprung	-13.9261
▁recovered	-13.9261
▁Co	-13.9264
▁Promise	-13.9277
▁guitars	-13.9279
▁parrots	-13.9279
▁arrest	-13.9285
Blech	-13.9286
▁Phoebe	-13.9286
▁Thanksgiving	-13.9286
▁fanciest	-13.9286
▁releasing	-13.9286
▁Barky	-13.9286
▁pricked	-13.9286
▁glimmered	-13.9287
▁Y	-13.9289
▁Sugar	-13.9291
▁heated	-13.9295
▁fixes	-13.9298
▁Bean	-13.9308
▁channel	-13.9311
▁Gertie	-13.9311
▁Grandad	-13.9311
▁ironing	-13.9311
▁v	-13.9316
▁cucumbers	-13.9334
▁choke	-13.9335
▁infection	-13.9336
▁smoky	-13.9336
▁hint	-13.9336
▁islands	-13.9336
▁climber	-13.9342
▁mold	-13.9346
ny	-13.9352
▁yielding	-13.9353
Found	-13.9362
Fly	-13.9383
▁fool	-13.9385
▁destruction	-13.9386
▁Mindy	-13.9386
▁lately	-13.9388
▁mac	-13.9393
▁de	-13.9393
▁Bees	-13.9397
ya	-13.9402
▁caf	-13.9409
▁squatted	-13.9411
▁Carlos	-13.9411
side	-13.943
▁skates	-13.9432
▁Silver	-13.9437
oot	-13.9437
▁flavours	-13.9447
▁grain	-13.9449
▁howling	-13.9458
welcome	-13.9459
▁roast	-13.946
▁praises	-13.946
▁cornfield	-13.9462
▁foreshadowed	-13.9462
▁slithering	-13.9463
▁Bobbi	-13.9467
With	-13.9484
ok	-13.9485
▁innocent	-13.9487
▁fixer	-13.9498
nie	-13.9502
▁Dove	-13.9502
▁lace	-13.9506
▁crooked	-13.9513
▁Mollie	-13.9513
▁blurry	-13.9513
▁oink	-13.9515
▁outing	-13.9533
Eat	-13.9534
▁Alicia	-13.9538
▁goblin	-13.9538
▁ponytail	-13.9538
▁session	-13.9538
▁perked	-13.9539
▁Jackson	-13.9539
▁Stacy	-13.954
▁cables	-13.954
▁Barney	-13.9541
▁classes	-13.9541
hy	-13.9543
▁Sh	-13.9554
▁wrists	-13.9558
▁Wiggles	-13.956
Josh	-13.9561
▁unwrap	-13.9564
▁haystack	-13.9564
▁Wink	-13.9564
▁Louie	-13.9564
▁whirled	-13.9564
▁cooks	-13.9566
▁Three	-13.9571
▁gaining	-13.958
▁potential	-13.959
▁weed	-13.959
▁Nell	-13.9591
▁dirtier	-13.9591
▁pinches	-13.9591
▁Bloom	-13.9594
La	-13.9597
Bear	-13.9603
▁carelessly	-13.9605
œJack	-13.9611
▁suck	-13.9614
▁Stephen	-13.9616
▁appetite	-13.9616
▁Whistle	-13.9619
Car	-13.9624
▁ducked	-13.9629
▁bills	-13.9634
▁Bones	-13.9635
▁Bubble	-13.9638
Annie	-13.9639
ga	-13.964
▁conquer	-13.9641
▁challenging	-13.9641
▁Wa	-13.9643
pi	-13.9646
▁arrives	-13.966
▁Intrigued	-13.9667
▁advantage	-13.9667
▁snuggly	-13.9667
▁bubbled	-13.9671
▁lunged	-13.9674
▁shaker	-13.9684
gy	-13.9687
▁hobby	-13.9693
▁sweating	-13.9695
der	-13.9695
▁bangs	-13.9696
▁selfishness	-13.9697
▁fifty	-13.9719
▁quality	-13.9719
▁victorious	-13.9719
▁involved	-13.972
pped	-13.9731
work	-13.9737
Imagine	-13.9743
▁disappoint	-13.9745
Climb	-13.9769
▁Jesus	-13.9772
▁tastier	-13.9772
▁retrieved	-13.9772
▁embraced	-13.9773
▁creaked	-13.9773
now	-13.9774
▁Brave	-13.9775
▁clu	-13.9777
Aw	-13.9778
▁useless	-13.9784
▁gulp	-13.9797
▁pee	-13.98
▁Whee	-13.9809
▁Helping	-13.9821
dog	-13.9822
Phew	-13.9822
▁heaviest	-13.9824
▁magpie	-13.9824
▁bruised	-13.9825
ile	-13.9834
who	-13.9845
▁combs	-13.9849
▁bask	-13.9851
▁receiving	-13.9851
▁awaited	-13.9851
▁Dancing	-13.9856
▁raisins	-13.986
▁Cake	-13.986
▁silk	-13.9877
▁Melanie	-13.9877
▁Plus	-13.9877
▁Debbie	-13.9878
▁Harriet	-13.9878
▁slime	-13.9879
ud	-13.9888
▁coolness	-13.989
▁rarely	-13.9899
Ten	-13.9902
▁Isabel	-13.9903
▁cloak	-13.9904
▁thirty	-13.9904
▁spotless	-13.9909
▁marvel	-13.991
▁sunk	-13.9912
▁dim	-13.992
▁injury	-13.993
▁Pingu	-13.993
▁whirring	-13.993
▁Ed	-13.995
▁construction	-13.9957
▁bullies	-13.9957
▁miner	-13.9963
▁stump	-13.9983
▁Beatrice	-13.9984
Eww	-13.9984
▁Sad	-13.9984
▁feared	-13.9987
▁shades	-13.9996
▁elbows	-14.0001
▁scrunch	-14.0009
▁accessories	-14.001
▁summertime	-14.0011
▁storybook	-14.0012
▁starry	-14.0012
▁greeting	-14.0014
▁hurriedly	-14.0016
▁walkie	-14.0018
▁Joel	-14.0018
▁Mi	-14.002
▁bending	-14.002
Ta	-14.0021
▁Juliet	-14.0031
▁clam	-14.0037
▁Gloria	-14.0037
▁Lacey	-14.0037
▁embarrassment	-14.0037
▁eyeshadow	-14.0037
▁obliged	-14.0038
▁howled	-14.0042
Alex	-14.0063
▁broomstick	-14.0064
▁cleverness	-14.0069
▁yelps	-14.007
▁trails	-14.0073
▁Tuesdays	-14.0075
▁looped	-14.0089
Ellie	-14.009
Grace	-14.009
▁Becca	-14.0091
▁admitted	-14.0091
▁Club	-14.0093
Brrr	-14.0096
▁Mild	-14.0099
talkie	-14.0099
▁prices	-14.0101
▁Dinner	-14.0109
eal	-14.011
▁War	-14.0111
ber	-14.0114
▁ungrateful	-14.0118
▁gleaming	-14.0119
▁glinting	-14.0119
Young	-14.012
▁Moe	-14.0128
▁Pizza	-14.014
saw	-14.0142
▁warns	-14.0144
▁Alfred	-14.0145
▁Jet	-14.0146
▁raw	-14.0146
▁crashes	-14.0147
▁homemade	-14.0149
▁School	-14.0152
▁Number	-14.0154
▁carts	-14.0156
od	-14.0159
rch	-14.0159
▁Butter	-14.0161
▁remaining	-14.0166
keeper	-14.0169
Congratulations	-14.0171
▁excuse	-14.0173
▁dragging	-14.0173
▁risen	-14.0177
▁repairs	-14.0191
▁Spotty	-14.0201
ging	-14.0201
for	-14.0207
▁rises	-14.0209
▁report	-14.0225
Twinkle	-14.0226
▁teddies	-14.0227
▁Marco	-14.0227
▁Junior	-14.023
▁driven	-14.0244
▁stalk	-14.0246
di	-14.0248
▁erupt	-14.0253
▁handled	-14.0253
▁afloat	-14.0255
▁hooked	-14.0256
▁bandaged	-14.0264
▁Wake	-14.0267
▁surfer	-14.0276
ira	-14.0281
friend	-14.0284
▁suggesting	-14.0286
iding	-14.0287
Her	-14.0287
▁Steal	-14.0288
Mrs	-14.0294
▁fired	-14.0312
▁Merry	-14.0322
Being	-14.0324
▁Eli	-14.0331
▁Buttons	-14.0331
Freeze	-14.0337
Adam	-14.0337
▁views	-14.0343
▁coo	-14.0353
▁pointer	-14.0354
▁eleven	-14.0366
▁sniffling	-14.0366
▁earthquakes	-14.0369
▁Cora	-14.037
▁frames	-14.0377
▁Drink	-14.0392
Surrender	-14.0393
▁marveling	-14.0395
▁chattering	-14.0395
▁Lady	-14.0397
▁tossing	-14.04
era	-14.0402
!'"	-14.0406
▁Abbi	-14.042
▁rejoiced	-14.0421
▁Winnie	-14.0421
▁Hippy	-14.0421
▁limped	-14.0422
▁Standing	-14.0422
▁tending	-14.0423
▁breadcrumbs	-14.0424
▁blond	-14.0436
Free	-14.0449
just	-14.0449
▁Ethan	-14.0449
▁luxurious	-14.0449
▁sundae	-14.0449
▁silky	-14.045
ated	-14.0451
▁Asked	-14.0452
pon	-14.0462
▁meets	-14.0469
▁remov	-14.0472
▁grazing	-14.0477
▁cranky	-14.0477
▁Stripey	-14.0478
▁erupted	-14.0478
▁mended	-14.0479
▁plump	-14.0482
▁hoot	-14.0495
▁remains	-14.0496
▁endless	-14.0503
▁drown	-14.0504
▁disobedient	-14.0506
▁gnome	-14.0506
▁coaster	-14.0506
▁wilted	-14.0506
▁crackling	-14.0506
ki	-14.0516
▁Animals	-14.0526
my	-14.0527
▁ladybugs	-14.0533
▁murky	-14.0534
▁trousers	-14.0534
▁Nearby	-14.0534
▁combined	-14.0534
ary	-14.0541
where	-14.0543
▁birdies	-14.0547
▁Trees	-14.0551
▁snails	-14.0552
▁urges	-14.056
▁crisp	-14.0562
▁imaginative	-14.0562
▁private	-14.0562
▁fondly	-14.0563
dle	-14.0563
▁enjoys	-14.0576
▁contented	-14.0582
▁preventing	-14.0585
eggie	-14.0591
▁Tabby	-14.0591
▁Tippy	-14.0592
▁coast	-14.0619
Poor	-14.0619
▁Brooke	-14.0619
▁Cody	-14.0619
▁flipping	-14.0619
▁whizzed	-14.0619
▁Dawn	-14.0622
▁Annabel	-14.0629
board	-14.0629
▁lawyers	-14.0638
▁blinks	-14.0639
Woo	-14.0655
▁adopt	-14.0675
▁Agnes	-14.0676
▁mustard	-14.0676
▁principal	-14.0676
▁reins	-14.0676
▁wasteful	-14.0677
▁colouring	-14.0696
▁yelp	-14.0696
▁Madeline	-14.0705
▁impact	-14.0705
▁creaking	-14.0707
▁drifting	-14.071
▁Winter	-14.0711
▁quitting	-14.0712
▁grownup	-14.0713
ite	-14.0721
▁Him	-14.0723
▁plus	-14.0724
▁plank	-14.0731
▁affect	-14.0733
▁assured	-14.0734
▁trimmed	-14.0734
▁booming	-14.0744
hoo	-14.0751
king	-14.0753
▁popsicles	-14.0755
▁Jesse	-14.0763
▁trophies	-14.0763
▁nightlight	-14.0768
rex	-14.0776
▁Cherry	-14.0792
▁disturbance	-14.0792
Grab	-14.0792
ever	-14.08
▁tiredness	-14.0809
▁stubb	-14.0812
▁skateboard	-14.0821
itten	-14.0821
Catch	-14.0823
▁buds	-14.0826
▁Jose	-14.0829
▁liking	-14.085
▁replies	-14.085
Ted	-14.0854
▁Donna	-14.087
ipper	-14.0873
▁resolved	-14.0879
▁apartment	-14.088
▁cawed	-14.0881
▁forming	-14.0884
▁con	-14.0888
▁gobble	-14.0896
▁Park	-14.0897
▁mini	-14.0901
▁pluck	-14.0908
▁Piggie	-14.0909
▁album	-14.0909
upert	-14.0909
▁oohed	-14.0909
▁copies	-14.0909
▁existed	-14.0909
Miss	-14.0909
▁fl	-14.0914
▁bun	-14.0921
▁forwards	-14.0929
▁Salt	-14.0935
▁kill	-14.0936
▁gestures	-14.0936
▁wriggle	-14.0937
▁Melinda	-14.0938
▁amusement	-14.0938
▁spiral	-14.0938
▁uniting	-14.0938
▁whining	-14.0938
▁foreshadowing	-14.0938
▁Sylvia	-14.0939
▁sucked	-14.0939
handed	-14.094
▁clearer	-14.095
▁caves	-14.0961
▁frantically	-14.0967
▁Owen	-14.0968
▁pea	-14.0971
▁resources	-14.0971
▁notices	-14.0975
ump	-14.098
▁Sweetie	-14.0981
▁folders	-14.0995
▁achieving	-14.0997
▁chaos	-14.0997
nowing	-14.0998
▁Hippo	-14.1
▁friendships	-14.1003
▁Pickles	-14.1011
lung	-14.1022
▁adored	-14.1027
▁lolly	-14.1027
▁Lara	-14.1027
▁nuzzles	-14.103
▁mastered	-14.1032
▁stalls	-14.1044
▁locking	-14.1051
▁grandparent	-14.1052
▁storing	-14.1056
▁Tooth	-14.1058
aya	-14.1059
▁leopards	-14.1068
œBye	-14.107
▁Butterfly	-14.1072
▁jingle	-14.1085
▁crumble	-14.1085
▁Aaron	-14.1086
▁glory	-14.1086
▁cocked	-14.1086
▁dice	-14.1086
▁messing	-14.1087
▁Harold	-14.1089
rays	-14.1093
ooh	-14.1102
▁dial	-14.1111
▁scurry	-14.1115
▁emptied	-14.1116
▁Pole	-14.1116
everse	-14.1117
▁sc	-14.1118
▁messier	-14.112
▁due	-14.114
▁Puff	-14.1146
▁regretful	-14.1146
▁stumbling	-14.1146
ictory	-14.1146
Drink	-14.1148
▁Ask	-14.1149
▁feeder	-14.1149
rr	-14.1154
▁crackle	-14.1156
end	-14.1165
ze	-14.1166
Ann	-14.1168
ened	-14.1169
▁announcement	-14.1176
▁hungrier	-14.1176
▁Learning	-14.1177
▁Bugs	-14.1178
▁barrels	-14.118
▁sharpen	-14.1182
▁squeaking	-14.1182
▁Beef	-14.1184
▁owe	-14.1185
ide	-14.1186
bu	-14.1194
▁drummer	-14.1207
▁Trevor	-14.1208
▁dis	-14.1209
▁fastened	-14.1211
▁grounded	-14.1213
▁cr	-14.123
▁snort	-14.1231
▁cutters	-14.1232
▁equal	-14.1237
▁huffed	-14.1238
Cindy	-14.1239
Milly	-14.1239
▁Goose	-14.1239
▁Lynn	-14.1241
▁runners	-14.1241
▁Coal	-14.125
ner	-14.1263
fish	-14.1264
ouch	-14.1266
▁Seth	-14.1267
▁Mika	-14.127
▁impatiently	-14.1282
▁rung	-14.1287
well	-14.129
▁doorknob	-14.1298
▁opportunities	-14.1298
▁rosy	-14.1298
▁squealing	-14.13
▁shrimps	-14.1307
Tell	-14.131
▁diver	-14.1311
œThey	-14.1316
▁paste	-14.1318
▁sounding	-14.132
ger	-14.132
▁squeaks	-14.1321
▁brake	-14.1324
▁Fuzz	-14.1328
▁plunge	-14.1328
mie	-14.1328
▁Biscuit	-14.1328
▁rash	-14.1328
iv	-14.1336
▁Work	-14.134
▁patients	-14.1353
▁banner	-14.1356
▁attract	-14.1358
how	-14.1359
▁dazzling	-14.1359
▁insistent	-14.1381
▁belief	-14.139
▁explosion	-14.139
▁Fanny	-14.139
▁Gently	-14.139
▁cupped	-14.1391
▁croaking	-14.1392
▁outdoor	-14.1397
ane	-14.14
▁Th	-14.1405
▁cords	-14.1407
▁salads	-14.1408
▁pinecone	-14.1418
▁figur	-14.1419
▁Caleb	-14.1421
▁dishonest	-14.1421
▁flamingo	-14.1421
▁clambered	-14.1421
▁Lillie	-14.1421
▁tighten	-14.1422
Push	-14.1424
▁Bell	-14.1426
▁Stripes	-14.143
que	-14.1438
ena	-14.1447
▁desire	-14.1448
▁blended	-14.1452
▁thoughtfulness	-14.1454
▁piglet	-14.1455
▁turkeys	-14.1456
▁dials	-14.1456
▁Truck	-14.1456
▁Chew	-14.1458
▁Sale	-14.1461
▁fairly	-14.1466
▁paddles	-14.1472
▁jacks	-14.1473
▁hammers	-14.1474
Ma	-14.1482
▁zone	-14.1483
▁Lacy	-14.1483
▁Pingo	-14.1483
▁sledding	-14.1483
▁Sami	-14.1485
▁itches	-14.1488
sky	-14.1504
▁rectangle	-14.1512
▁stray	-14.1513
Big	-14.1513
▁Officer	-14.1514
▁lighthouse	-14.1515
▁sharpened	-14.1516
uacky	-14.1518
▁Wonder	-14.1519
▁Mars	-14.1522
▁shaken	-14.1525
▁pistols	-14.1526
▁motors	-14.1533
ebra	-14.1535
▁sentence	-14.1544
▁fluff	-14.1544
▁Giant	-14.1545
▁bumblebee	-14.1545
▁unstuck	-14.1545
▁described	-14.1546
▁records	-14.1549
▁Bug	-14.1554
▁eater	-14.156
▁boost	-14.1561
▁whil	-14.1575
▁Smiling	-14.1576
▁propeller	-14.1576
▁similar	-14.1576
▁padlock	-14.1576
▁Isabelle	-14.1577
▁Curiosity	-14.1578
▁closest	-14.158
▁traveler	-14.1582
▁deepest	-14.1592
▁engineer	-14.1593
haw	-14.1601
▁bless	-14.1606
▁donate	-14.1607
▁rattling	-14.1608
▁goalie	-14.161
Even	-14.1611
Baby	-14.1611
▁runway	-14.1611
▁snorts	-14.1612
lie	-14.1621
▁paramedics	-14.1629
▁catcher	-14.1631
▁retrieve	-14.1638
▁Celia	-14.1639
▁sprinted	-14.1639
▁Lana	-14.164
▁Mei	-14.164
▁gumball	-14.164
immy	-14.164
Clara	-14.1642
œSometimes	-14.1643
▁compliments	-14.1657
▁Fluff	-14.1671
▁outstretched	-14.1671
▁unsafe	-14.1671
▁jay	-14.1671
▁comfortably	-14.1671
▁recordings	-14.1672
▁thousands	-14.1684
▁jogs	-14.1689
▁normally	-14.1695
▁secretly	-14.1696
▁flick	-14.1701
▁Grandmother	-14.1703
▁crumpled	-14.1703
▁Chewy	-14.1703
▁blessing	-14.1703
▁blessings	-14.1704
David	-14.1706
▁Speed	-14.171
ure	-14.1721
▁tend	-14.1732
not	-14.1732
ded	-14.1733
▁fingertips	-14.1735
wa	-14.1738
▁kernels	-14.1748
▁sorrow	-14.1752
▁Pine	-14.1759
ocks	-14.1765
▁Gaby	-14.1767
▁waddling	-14.1767
▁Claw	-14.1767
▁pry	-14.1767
Stir	-14.1767
▁Socky	-14.1767
▁Cookie	-14.1772
▁Soup	-14.1772
▁Herb	-14.1787
Stupid	-14.1799
▁ridden	-14.1799
Shut	-14.1802
▁bedside	-14.1803
ev	-14.1807
Ho	-14.181
woo	-14.1821
▁trace	-14.183
▁detail	-14.183
▁Disappointed	-14.1831
▁Lying	-14.1831
▁shaving	-14.1831
▁unnecessary	-14.1831
▁dandelion	-14.1831
▁fate	-14.1835
Caw	-14.1835
boos	-14.184
▁layed	-14.1852
▁dam	-14.1857
Hoo	-14.1858
▁reel	-14.1862
▁Archie	-14.1863
▁Tracy	-14.1863
▁childhood	-14.1863
▁horrified	-14.1863
▁privacy	-14.1863
▁Boris	-14.1863
▁tacos	-14.1863
▁postcard	-14.1863
▁sipping	-14.1864
▁slurped	-14.1864
▁Samuel	-14.1867
▁Oat	-14.187
▁dearly	-14.1875
ush	-14.1883
print	-14.1884
ise	-14.1891
▁spoilt	-14.1895
▁revenge	-14.1895
ab	-14.1917
▁critters	-14.1925
▁Sissy	-14.1928
▁daddies	-14.1928
▁mower	-14.1928
▁seahorse	-14.1928
▁digger	-14.1928
▁hamburger	-14.1929
People	-14.1932
▁cob	-14.1949
▁arriving	-14.1952
▁jealousy	-14.1953
▁tangy	-14.1961
▁yanked	-14.1961
▁protective	-14.1962
▁vows	-14.1962
toed	-14.1963
▁mailboxes	-14.1963
▁hopefully	-14.1964
▁mooing	-14.1965
▁beeps	-14.1966
▁Twist	-14.1967
▁notebooks	-14.1971
Bobo	-14.1972
▁spine	-14.1977
▁Lucie	-14.1982
▁Fun	-14.1983
▁Priscilla	-14.1993
▁assistant	-14.1993
▁brag	-14.1993
▁supper	-14.1993
▁Henny	-14.1993
▁Sari	-14.1993
▁Crocodile	-14.1997
▁skeletons	-14.2002
▁Ball	-14.2009
▁recommending	-14.2009
▁sighing	-14.201
night	-14.2016
▁springs	-14.2016
▁Sheila	-14.202
▁cigarettes	-14.2022
Bl	-14.2022
▁flicker	-14.2024
▁volunteer	-14.2026
▁coiled	-14.2026
▁halo	-14.2027
▁Jed	-14.2028
▁sprinkler	-14.2028
▁squawking	-14.2028
▁Tad	-14.2029
maker	-14.2029
Greetings	-14.203
▁trumpets	-14.2035
ink	-14.2036
▁Money	-14.2038
▁Print	-14.2038
▁Silly	-14.204
▁brats	-14.2058
▁sunburn	-14.2058
▁electric	-14.2059
▁Sabrina	-14.2059
▁Loop	-14.2059
▁unwell	-14.2059
▁matchbox	-14.2059
▁echoing	-14.206
▁overnight	-14.2066
▁whimper	-14.209
▁Lego	-14.2092
▁Pedro	-14.2092
▁shiniest	-14.2092
▁talons	-14.2092
▁preferred	-14.2092
▁capable	-14.2093
▁surge	-14.2093
▁diaper	-14.2094
▁cucumber	-14.2094
▁spitting	-14.2095
ut	-14.2098
▁Patience	-14.2103
▁harshly	-14.2108
▁measurements	-14.2118
▁tilts	-14.2143
Mar	-14.215
▁rhythms	-14.2153
zoom	-14.2154
▁sugary	-14.2155
▁tackle	-14.2157
▁dart	-14.2157
▁distress	-14.2158
▁ladies	-14.2158
▁drape	-14.2158
Children	-14.2163
▁Navy	-14.2192
▁alphabet	-14.2192
▁terror	-14.2192
▁thrilling	-14.2194
▁interests	-14.2194
▁critter	-14.2194
▁chunk	-14.2194
hop	-14.2195
▁survived	-14.2196
Love	-14.2196
▁Think	-14.2197
▁Everytime	-14.2202
▁struggles	-14.2205
▁New	-14.2206
▁surfed	-14.2208
▁tumble	-14.2214
▁waddle	-14.2224
▁reassuring	-14.2225
▁confront	-14.2225
▁flopped	-14.2225
▁grumpiness	-14.2225
▁unforgettable	-14.2225
▁chugging	-14.2225
▁Biggy	-14.2225
▁Sea	-14.2228
mmy	-14.2244
▁collapse	-14.2258
▁uncover	-14.2258
▁swingset	-14.2259
▁Flying	-14.226
▁thankfully	-14.2261
▁flashlights	-14.2266
air	-14.2268
▁sips	-14.229
▁Goodnight	-14.229
▁uneasy	-14.2292
Bee	-14.2295
▁playmate	-14.2296
Want	-14.2297
▁Apple	-14.2302
whooshing	-14.2303
▁yay	-14.2312
▁groan	-14.2324
▁Louis	-14.2325
▁cents	-14.2326
▁Horse	-14.233
▁hiked	-14.2331
▁lamps	-14.2332
▁wildly	-14.2338
▁Great	-14.2349
▁chuckle	-14.2359
▁benefit	-14.236
▁fortunate	-14.236
▁territory	-14.236
▁unzipped	-14.236
▁hesitantly	-14.2363
▁forgetful	-14.2364
Cheese	-14.2365
▁farms	-14.2368
▁wetness	-14.2374
▁tiles	-14.2374
▁fighters	-14.2374
▁potions	-14.2389
▁rent	-14.2393
▁hairstyle	-14.2394
▁Step	-14.2397
▁Black	-14.2399
Lion	-14.2399
aw	-14.2401
▁heater	-14.2411
▁dizziness	-14.2428
▁unlucky	-14.2428
▁valuing	-14.2428
▁snowed	-14.2429
Buddy	-14.2434
▁Adventure	-14.2435
▁grade	-14.2435
▁Making	-14.244
▁Faster	-14.2441
▁Shark	-14.2444
▁bob	-14.245
▁Ne	-14.2451
▁dong	-14.2454
▁Bibi	-14.2462
▁tidier	-14.2462
▁Petal	-14.2462
▁Clown	-14.2465
qui	-14.2466
▁attacking	-14.2467
▁Cleo	-14.2497
▁droopy	-14.2497
▁replacement	-14.2497
▁Thinking	-14.2498
▁keyboard	-14.2498
▁toughest	-14.2502
Frank	-14.2502
freeze	-14.2502
pilot	-14.2502
long	-14.2504
▁Flowers	-14.2508
▁Doll	-14.2509
down	-14.2527
▁curse	-14.253
▁Laila	-14.2531
▁bay	-14.2531
▁loss	-14.2531
▁ouchy	-14.2532
▁Yummy	-14.2552
▁High	-14.2566
▁beanstalk	-14.2566
▁steadily	-14.2566
▁buyer	-14.257
reverse	-14.2572
▁screens	-14.2582
are	-14.2588
Sir	-14.2593
▁adjust	-14.26
▁Tigger	-14.26
▁ointment	-14.26
▁Crane	-14.26
▁someplace	-14.2608
▁roles	-14.2608
▁gadgets	-14.2615
▁stomps	-14.2626
▁Slow	-14.2626
▁mitts	-14.2634
▁faithful	-14.2635
▁headphones	-14.2635
▁spinner	-14.2636
▁beaten	-14.2637
▁marshmallow	-14.2641
▁stitching	-14.2652
▁March	-14.2653
love	-14.267
▁volume	-14.267
▁Mitch	-14.267
▁pedalling	-14.2671
▁farmhouse	-14.2671
œhello	-14.2675
▁pouts	-14.2689
ious	-14.269
▁pawed	-14.2692
▁protects	-14.2693
▁Wednesdays	-14.2696
▁moist	-14.2705
▁tradition	-14.2705
▁Cassie	-14.2705
▁cactuses	-14.2708
▁Tip	-14.2711
Thomas	-14.2712
▁clicking	-14.2714
Tony	-14.2719
▁snatche	-14.2719
ft	-14.2719
▁sizzle	-14.274
▁Mustache	-14.2741
▁Dara	-14.2741
▁attracted	-14.2742
▁weave	-14.2752
▁slippers	-14.2753
▁Ty	-14.2756
▁floaties	-14.2757
ship	-14.2771
ew	-14.2775
▁Wanda	-14.2776
▁register	-14.2776
▁calmness	-14.2782
bang	-14.2783
▁pal	-14.2783
ough	-14.2787
▁everytime	-14.2789
▁Oxygen	-14.2789
▁poisoned	-14.2794
zz	-14.2811
niversity	-14.2811
▁unison	-14.2811
▁reflecting	-14.2812
▁ga	-14.2812
▁Walter	-14.2815
▁Dare	-14.2816
▁Milk	-14.282
▁Flap	-14.2843
▁Moment	-14.2843
▁encounter	-14.2846
▁appointment	-14.2847
▁China	-14.2847
▁squirm	-14.2847
top	-14.2849
▁arc	-14.2851
lan	-14.2856
uck	-14.2863
▁guiding	-14.2883
▁spatula	-14.2883
▁wavy	-14.2883
▁windmill	-14.2883
▁trim	-14.2883
Pass	-14.289
▁tougher	-14.2896
▁appearing	-14.2902
Pick	-14.2906
▁scribbles	-14.2906
▁Miranda	-14.2919
▁cacti	-14.2919
▁guacamole	-14.2919
▁screeched	-14.292
œAlright	-14.2921
▁permitting	-14.2923
▁Dodo	-14.2927
ris	-14.2935
two	-14.2945
▁roofs	-14.2946
▁moles	-14.2946
▁bandaid	-14.2948
▁ski	-14.2951
ddled	-14.2954
▁obedience	-14.2954
▁Misty	-14.2955
▁mash	-14.2957
▁Achoo	-14.2958
▁shyness	-14.296
Sweet	-14.2962
Pizza	-14.2962
Bill	-14.2962
▁villain	-14.2962
▁option	-14.2962
az	-14.2963
ching	-14.2966
▁surfers	-14.2967
▁Mack	-14.297
▁doubt	-14.2984
ering	-14.2989
▁Nikki	-14.2991
▁SNAP	-14.2991
▁bacon	-14.2991
▁slope	-14.2991
▁swipe	-14.2991
▁moss	-14.2991
▁gemstone	-14.2991
▁jiggled	-14.2991
▁speeds	-14.2994
œWhen	-14.2997
Steve	-14.2998
stand	-14.2999
▁bands	-14.2999
▁demands	-14.3008
▁scoring	-14.3027
▁wildlife	-14.3027
▁Lastly	-14.3027
▁Bessy	-14.3028
▁beekeeper	-14.3028
away	-14.3031
▁endings	-14.3032
bble	-14.3034
Five	-14.3034
Jamie	-14.3034
▁De	-14.3035
▁sibling	-14.3035
▁Bud	-14.3041
▁mostly	-14.3044
▁unlocks	-14.3049
fully	-14.3054
▁Cole	-14.3054
▁cannon	-14.3063
▁pure	-14.3063
▁gleefully	-14.3063
▁buzzes	-14.3064
▁Climbing	-14.3064
▁stubbornness	-14.3066
▁Heather	-14.3067
▁Whale	-14.3069
▁Giraffe	-14.307
hu	-14.3072
▁Around	-14.3077
gh	-14.3081
▁strap	-14.3089
day	-14.3092
▁Best	-14.3093
▁flush	-14.3099
▁swell	-14.3099
▁witness	-14.3099
▁Trina	-14.31
▁lavender	-14.31
▁phrase	-14.31
▁pruning	-14.31
▁Trixie	-14.31
▁pasture	-14.31
▁Philip	-14.31
▁Judge	-14.3102
NO	-14.3113
▁Four	-14.3128
▁includes	-14.3136
▁clinic	-14.3136
▁strutted	-14.3136
▁Caterpillar	-14.3141
io	-14.3141
Over	-14.3143
▁sniffles	-14.315
▁pucker	-14.315
▁chances	-14.3169
▁Sheep	-14.3169
▁hesitate	-14.3172
▁actor	-14.3173
▁Miraculously	-14.3173
▁Scruffy	-14.3173
▁prey	-14.3173
▁hooted	-14.3174
▁pang	-14.3176
▁torch	-14.3179
Four	-14.3181
Mother	-14.3181
▁habits	-14.3185
▁Toot	-14.3209
▁greed	-14.321
▁sprinkling	-14.321
▁zigzagging	-14.321
▁partied	-14.3211
▁bid	-14.3211
▁flicked	-14.3211
▁somersaults	-14.3211
▁sprouted	-14.3213
happy	-14.3218
match	-14.3219
▁inspect	-14.3224
▁dates	-14.3231
iya	-14.3237
rry	-14.3246
▁produce	-14.3246
Bravo	-14.3247
▁Genie	-14.3247
▁remarkable	-14.3247
▁stroking	-14.3247
▁Loyal	-14.3247
▁death	-14.3247
▁surgery	-14.3247
▁firetruck	-14.3248
▁grasped	-14.3248
▁warriors	-14.325
new	-14.3252
Milo	-14.3255
▁arranging	-14.3284
▁loaf	-14.3284
▁variety	-14.3284
▁Moley	-14.3285
ize	-14.3285
▁puffy	-14.3286
▁plea	-14.3294
▁insists	-14.3296
▁vanishing	-14.3299
▁scraps	-14.33
▁chalks	-14.3318
▁arrival	-14.3322
▁basil	-14.3322
▁confetti	-14.3322
▁bustling	-14.3322
▁muttered	-14.3322
▁recognised	-14.3322
▁swished	-14.3322
▁simplest	-14.3326
▁Hot	-14.3328
ico	-14.3331
▁pathway	-14.3333
▁Yay	-14.3337
▁outrun	-14.3338
▁ruby	-14.334
▁rounded	-14.335
▁teaspoons	-14.335
▁coconuts	-14.3352
elax	-14.3358
▁kettle	-14.3359
▁Connie	-14.3359
▁flitting	-14.3359
▁goldfish	-14.3359
▁considered	-14.336
mine	-14.3364
▁Jellyfish	-14.337
ple	-14.3372
▁Juan	-14.3374
▁Spicy	-14.338
▁newest	-14.3383
▁spelled	-14.3392
eluctantly	-14.3397
▁repay	-14.3397
▁persisted	-14.3397
▁mopping	-14.3397
▁blend	-14.3399
▁Lions	-14.3403
wee	-14.3403
Frog	-14.3406
▁jack	-14.3408
▁beams	-14.3419
▁wheeled	-14.3426
▁trot	-14.3434
▁carpenter	-14.3434
▁whinnied	-14.3434
▁Biff	-14.3434
▁punched	-14.3435
▁fetches	-14.3435
▁Sebastian	-14.3436
▁froggy	-14.3437
▁Dennis	-14.3438
▁gown	-14.345
▁Dogs	-14.3455
▁Chocolate	-14.3459
▁refuses	-14.3471
▁Grump	-14.3472
▁Monday	-14.3472
▁Georgie	-14.3474
▁crafted	-14.3475
our	-14.3476
▁THE	-14.3478
▁helpfulness	-14.3478
Nobody	-14.3481
▁carving	-14.3485
▁tailor	-14.3489
tie	-14.349
om	-14.3497
▁gardeners	-14.3498
▁duckie	-14.3501
▁dying	-14.351
▁hula	-14.351
▁twinkly	-14.351
▁fearless	-14.3512
ied	-14.3513
Ba	-14.3516
ph	-14.3533
▁shooter	-14.3536
▁echo	-14.3546
▁House	-14.3548
▁incident	-14.3548
▁Muffy	-14.3548
▁ticklish	-14.3548
▁tingly	-14.3548
▁whizzing	-14.3549
▁grandad	-14.3549
▁grunted	-14.3549
▁Hav	-14.355
œAh	-14.356
▁peeling	-14.3561
œThese	-14.3562
œHe	-14.3562
Slow	-14.3562
ang	-14.3572
there	-14.3575
▁wonderland	-14.3588
▁bullets	-14.3611
Wheee	-14.3614
bag	-14.3618
Jo	-14.3623
▁craziest	-14.3625
▁yummier	-14.3625
▁Gizmo	-14.3625
▁Hazel	-14.3625
▁uncertain	-14.3625
▁Phillip	-14.3625
▁rowboat	-14.3625
▁Friday	-14.3625
ollie	-14.3626
▁tweeting	-14.363
▁meetings	-14.363
▁Far	-14.3635
▁grasp	-14.3663
▁dangling	-14.3664
▁disbelief	-14.3664
▁oval	-14.3664
▁zap	-14.3664
▁zigzagged	-14.3664
▁luckier	-14.3664
▁cultures	-14.3667
▁approaching	-14.3667
ged	-14.3688
▁scrapes	-14.369
▁vendors	-14.3698
▁recogniz	-14.37
▁tinkling	-14.3702
▁Lyla	-14.3703
▁Sprinkles	-14.3703
▁divided	-14.3703
▁agreeing	-14.3703
▁Diane	-14.3705
▁Deer	-14.3709
Frankie	-14.3713
▁coughs	-14.3716
once	-14.3716
▁cranes	-14.3718
▁Higher	-14.3719
▁ABCs	-14.373
▁hamburgers	-14.374
▁Blake	-14.3741
▁compost	-14.3741
▁perseverance	-14.3741
▁scribble	-14.3754
▁bullet	-14.3755
iff	-14.3764
▁Gr	-14.377
▁applied	-14.378
▁therapist	-14.378
▁stressed	-14.3781
▁Puffy	-14.3781
▁gentleman	-14.3786
▁forty	-14.3792
▁teammates	-14.3792
▁spinach	-14.3799
▁bathrobes	-14.3809
▁markings	-14.3813
▁handkerchief	-14.382
▁juggled	-14.3821
▁pumped	-14.3822
▁pound	-14.3832
▁skulls	-14.3833
▁trained	-14.3844
Lost	-14.385
▁Lilah	-14.3857
ries	-14.3858
▁exist	-14.3858
▁syringe	-14.3859
▁wisest	-14.3865
boat	-14.3869
Freddy	-14.387
▁minty	-14.3872
▁Butterflies	-14.3873
▁sis	-14.3874
▁golfer	-14.3881
Glad	-14.3899
▁bendy	-14.3904
yum	-14.391
jo	-14.3931
▁limp	-14.3936
▁punch	-14.3937
▁Jemima	-14.3938
▁Shirley	-14.3938
▁diligently	-14.3938
▁photographer	-14.3939
▁moose	-14.3939
Son	-14.3941
▁eagerness	-14.3943
▁Waffle	-14.3943
œYum	-14.3946
▁spa	-14.3946
check	-14.3949
minded	-14.395
OA	-14.397
▁cash	-14.3978
▁Felicity	-14.3978
▁personality	-14.3978
▁sheepishly	-14.3978
▁Meena	-14.3978
▁snarling	-14.3979
▁frighten	-14.3979
▁suitable	-14.3979
▁Gorilla	-14.3982
▁cabinets	-14.3983
▁weaving	-14.3983
Play	-14.3988
▁threats	-14.4001
▁stations	-14.4008
▁losers	-14.4009
ana	-14.401
▁rust	-14.4017
▁Jeffrey	-14.4018
▁Dale	-14.4018
▁quickest	-14.4022
▁collector	-14.4022
▁Home	-14.4028
▁Lili	-14.4028
▁diet	-14.4033
moo	-14.4038
av	-14.4041
▁splinter	-14.4041
▁difficulty	-14.405
▁rhyme	-14.4052
▁forces	-14.4054
▁sons	-14.4054
▁react	-14.4057
▁English	-14.4058
▁Brady	-14.406
▁Wild	-14.4064
three	-14.407
Snowy	-14.407
▁chug	-14.4074
▁sinks	-14.4074
▁greener	-14.4078
▁littlest	-14.4096
▁Dorothy	-14.4099
▁Leila	-14.4099
▁official	-14.4099
▁roundabout	-14.4099
▁adjusted	-14.41
▁reeled	-14.41
▁Greeny	-14.4101
men	-14.4104
▁Broccoli	-14.4111
▁laps	-14.4118
▁fewer	-14.4119
▁Boat	-14.4123
▁gr	-14.4124
ooo	-14.4134
eg	-14.4135
▁shimmer	-14.4137
▁needing	-14.4139
▁fifteen	-14.4139
▁koala	-14.4139
▁pyjamas	-14.4139
▁scarier	-14.4139
Gotcha	-14.4139
▁directly	-14.4139
▁Amazingly	-14.4139
▁latch	-14.4139
pitched	-14.4151
Jessie	-14.4151
Gina	-14.4151
▁cheery	-14.4159
▁Swan	-14.4162
▁sl	-14.4173
▁sunsets	-14.418
▁perspective	-14.418
▁foil	-14.418
▁erased	-14.4184
▁wagons	-14.4187
▁leafy	-14.4187
▁Aren	-14.4188
Buzz	-14.4192
œDid	-14.4192
mb	-14.4208
▁gloom	-14.4215
▁sobs	-14.4216
▁nibbles	-14.4217
Enough	-14.4221
▁aquarium	-14.4221
▁fortune	-14.4221
▁parcel	-14.4221
▁spectacular	-14.4221
▁dew	-14.4221
▁whirred	-14.4221
▁Micky	-14.4222
▁mango	-14.4222
▁battles	-14.4225
Turn	-14.4233
Davey	-14.4234
bear	-14.4235
▁fruity	-14.4236
sized	-14.424
▁finest	-14.4241
bb	-14.4252
baa	-14.4256
▁Aiden	-14.4262
▁Clover	-14.4262
▁bonfire	-14.4262
▁silverware	-14.4262
▁pounded	-14.4262
▁woodland	-14.4263
▁judged	-14.4265
▁picky	-14.4267
▁serves	-14.4267
flower	-14.4269
▁villains	-14.4294
▁wilt	-14.4301
▁Belinda	-14.4303
▁Glass	-14.4303
▁gigantic	-14.4303
▁milkshake	-14.4303
▁rummage	-14.4303
▁Addy	-14.4303
▁entertained	-14.4303
Warning	-14.4304
▁Macy	-14.4304
œOne	-14.4313
▁citizens	-14.4314
▁Coffee	-14.4317
▁slaps	-14.4319
▁Match	-14.4319
▁prick	-14.432
rap	-14.4323
pick	-14.4329
ami	-14.4338
▁slurp	-14.4342
▁clipboard	-14.4344
▁chime	-14.4344
▁Cut	-14.4354
▁tulips	-14.4363
▁errands	-14.4364
came	-14.4381
▁chief	-14.4385
▁spout	-14.4385
▁ditch	-14.4386
▁Woolly	-14.4386
▁Peach	-14.4386
▁Somewhere	-14.4386
▁daydreaming	-14.4386
▁flickered	-14.4387
▁whimpering	-14.4387
▁octopuses	-14.4389
gly	-14.4393
Splash	-14.4398
Soup	-14.44
▁tilt	-14.4404
▁safest	-14.4405
▁meaner	-14.4409
▁ch	-14.4418
▁duckies	-14.442
▁Wool	-14.4427
▁Gill	-14.4427
▁blacksmith	-14.4427
▁carrier	-14.4427
▁cockpit	-14.4427
▁professional	-14.4427
▁underestimate	-14.4427
▁drumming	-14.4427
▁savannah	-14.4427
ASH	-14.4427
▁pressure	-14.4427
▁Pen	-14.4428
▁passage	-14.4428
Boom	-14.4431
▁limit	-14.4432
▁grave	-14.4436
ence	-14.4439
▁watchful	-14.444
Jerry	-14.444
urt	-14.4441
▁copying	-14.4442
Jackie	-14.4443
▁Carrot	-14.4446
nce	-14.4453
cha	-14.4454
▁meanie	-14.4459
▁aims	-14.4464
▁Sydney	-14.4469
▁despair	-14.4469
▁inserted	-14.4469
▁snooze	-14.4469
▁mopped	-14.4469
▁unscrewed	-14.4469
way	-14.4476
œGoodbye	-14.4477
▁bins	-14.4477
▁nighttime	-14.4479
kin	-14.4489
▁sliced	-14.4495
▁Stu	-14.4499
▁heap	-14.4503
▁persuade	-14.451
▁swift	-14.4511
▁Halfway	-14.4511
▁Sharon	-14.4511
▁professor	-14.4511
▁ashore	-14.4511
▁sideways	-14.4511
▁Smiley	-14.4511
▁Smokey	-14.4512
▁launched	-14.4513
▁Jessy	-14.452
▁Gra	-14.4522
▁Move	-14.4529
œMax	-14.4533
▁handfuls	-14.4533
▁brightness	-14.4537
▁areas	-14.4543
▁gaps	-14.4548
▁farmyard	-14.4553
▁melodies	-14.4553
▁subtract	-14.4553
▁smeared	-14.4554
▁bleated	-14.4554
▁richest	-14.4554
▁Ja	-14.4555
▁hideaway	-14.4555
▁Trouble	-14.4556
▁peaked	-14.4556
▁pouting	-14.4557
covered	-14.4567
▁oar	-14.4568
▁g	-14.4585
Fun	-14.4588
▁attend	-14.4594
▁dribble	-14.4595
▁huff	-14.4595
▁fizz	-14.4595
▁Month	-14.4596
▁fascination	-14.4596
▁longingly	-14.4596
▁inspiration	-14.4596
▁Luisa	-14.4596
▁Last	-14.4596
▁Light	-14.4596
▁mermaids	-14.4601
▁Benji	-14.4603
Tomorrow	-14.4609
lapped	-14.4625
iko	-14.4633
▁majesty	-14.4638
▁shifted	-14.4638
▁tournament	-14.4638
▁Casey	-14.4638
▁silliest	-14.4638
Sounds	-14.4638
▁licenses	-14.4639
œToday	-14.4644
▁Freckles	-14.4645
God	-14.4647
Suzie	-14.4652
▁Gas	-14.4662
▁exercised	-14.4666
▁Sit	-14.4669
▁Joke	-14.468
▁dismay	-14.468
▁spool	-14.4681
▁unplugged	-14.4681
▁Clucky	-14.4681
▁locket	-14.4681
▁poof	-14.4681
▁main	-14.4683
▁watery	-14.4688
some	-14.4693
▁patched	-14.4696
▁nailed	-14.4714
▁Snake	-14.4721
▁comment	-14.4723
▁concern	-14.4723
▁Bull	-14.4723
Yippee	-14.4724
▁breathtaking	-14.4724
▁console	-14.4724
▁galaxies	-14.4724
▁harbour	-14.4724
▁internet	-14.4724
▁medium	-14.4724
▁sensible	-14.4724
▁stash	-14.4724
Aww	-14.4724
▁scanned	-14.4724
▁hummingbird	-14.4724
▁pranced	-14.4724
ran	-14.4724
▁Forest	-14.4726
▁rattled	-14.4726
ingo	-14.4726
▁wary	-14.4736
ib	-14.4738
▁Nap	-14.4743
▁brilliantly	-14.4756
▁Dreams	-14.4762
▁villager	-14.4764
▁transform	-14.4766
▁Ferris	-14.4767
▁heartbeat	-14.4767
▁hobbies	-14.4767
▁motorbike	-14.4767
▁various	-14.4767
▁Otter	-14.4767
▁Congratulations	-14.4769
▁evenly	-14.4771
▁alas	-14.4776
Millie	-14.4781
because	-14.4781
Star	-14.4782
ear	-14.4789
▁containers	-14.4798
▁suppose	-14.4809
▁Seal	-14.481
▁Joyce	-14.4811
▁former	-14.4811
▁Chicken	-14.4815
erry	-14.4824
Shall	-14.4825
▁Luca	-14.4833
die	-14.4843
Toys	-14.4853
▁Frisky	-14.4854
▁Trudy	-14.4854
▁jigsaw	-14.4854
▁reeds	-14.4854
▁Flip	-14.4854
▁limping	-14.4855
▁Evan	-14.4855
▁posed	-14.4857
they	-14.4862
bra	-14.4868
Life	-14.4869
▁Su	-14.487
▁tons	-14.4875
▁punishing	-14.488
ix	-14.4884
▁trainer	-14.4884
▁artists	-14.4887
▁Elisa	-14.4897
▁policy	-14.4897
▁visible	-14.4897
▁speechless	-14.4897
▁lioness	-14.4897
œyes	-14.4901
œGreat	-14.4901
▁pi	-14.4903
▁fellow	-14.4905
▁policemen	-14.4906
tra	-14.4912
▁command	-14.492
zy	-14.4925
▁posts	-14.4928
▁barnyard	-14.4941
▁wailed	-14.4942
▁Amie	-14.4948
▁Han	-14.495
▁Cocoa	-14.4952
▁total	-14.4952
▁Scarlett	-14.4952
Chocolate	-14.4956
▁History	-14.4962
pie	-14.4962
▁Cr	-14.4964
▁raindrop	-14.4967
house	-14.4973
gu	-14.4979
▁Marc	-14.4983
▁wrinkles	-14.4983
▁app	-14.4983
▁clang	-14.4984
▁obvious	-14.4985
▁parlor	-14.4985
▁Laser	-14.4985
▁peering	-14.4986
lar	-14.499
▁menus	-14.499
▁addressed	-14.499
▁Bit	-14.4992
Dinner	-14.5001
Promise	-14.5001
▁accomplishments	-14.5002
▁beaches	-14.5008
▁tulip	-14.5009
rip	-14.5023
Ca	-14.5023
▁Pumpkin	-14.5029
▁glorious	-14.5029
▁typing	-14.5029
▁underwear	-14.5029
▁unharmed	-14.5029
alue	-14.503
▁cork	-14.503
▁Margo	-14.503
▁boldly	-14.5031
▁neared	-14.5032
Sun	-14.5032
zing	-14.5034
▁breathes	-14.5036
▁leftover	-14.5038
▁Mari	-14.5047
▁casting	-14.5048
▁features	-14.5053
▁effect	-14.5054
▁collections	-14.5061
▁dandelions	-14.5074
▁Bossy	-14.5074
▁Glow	-14.5074
▁handyman	-14.5074
azor	-14.5074
▁illness	-14.5074
▁paintbrushes	-14.5074
▁bales	-14.5079
▁smoothness	-14.5081
▁neater	-14.5084
▁croaks	-14.5084
▁disc	-14.5085
Find	-14.5093
Ahhh	-14.5095
▁displays	-14.5097
eating	-14.5105
▁layers	-14.5113
œTom	-14.5116
▁elves	-14.5119
▁Jada	-14.5119
▁squashed	-14.5122
▁giddy	-14.5122
Fish	-14.5135
▁meanings	-14.5142
▁emotions	-14.5154
▁Guess	-14.5157
▁Sharks	-14.5158
▁describe	-14.5163
Blood	-14.5163
▁lightbulb	-14.5163
▁Pauline	-14.5164
▁steamy	-14.5177
onny	-14.5178
▁showered	-14.5178
Ollie	-14.518
▁crop	-14.5189
▁festivals	-14.5197
▁Children	-14.5202
▁soothe	-14.5207
▁bound	-14.5208
▁Anthony	-14.5208
▁July	-14.5209
▁pleading	-14.5209
▁brim	-14.5211
▁hasn	-14.5218
meow	-14.5225
▁recite	-14.5238
▁Brandy	-14.5254
▁betrayed	-14.5254
▁bristles	-14.5254
▁waggy	-14.5254
▁crumbled	-14.5255
▁outsmart	-14.5255
▁Especially	-14.5258
▁su	-14.5259
treating	-14.5263
▁maths	-14.5264
▁plums	-14.5264
▁Cluck	-14.5267
ale	-14.5271
Cheers	-14.5284
▁dares	-14.5285
▁rinses	-14.5288
▁imitate	-14.5295
▁numb	-14.5299
▁Amelie	-14.5299
▁Derek	-14.5299
▁Naomi	-14.5299
▁funnier	-14.5299
▁grumpier	-14.5299
▁porcupine	-14.5299
▁title	-14.5299
shift	-14.5299
▁Donny	-14.53
Dead	-14.5308
rrr	-14.5309
▁cheeky	-14.5312
help	-14.5316
▁Scissors	-14.5317
Show	-14.5322
▁flipper	-14.5326
▁performances	-14.5334
ook	-14.534
▁Lemon	-14.5341
▁brow	-14.5343
▁steaks	-14.5344
▁Foreshadowing	-14.5345
▁twitching	-14.5346
▁smudged	-14.5346
▁weaved	-14.5346
▁Miguel	-14.5347
▁dreamland	-14.5348
▁dumps	-14.5348
Order	-14.5354
par	-14.5355
▁doghouse	-14.5356
▁thousand	-14.5372
▁Natalie	-14.5391
▁Pixie	-14.5391
▁eldest	-14.5391
▁flagpole	-14.5391
▁swarm	-14.5391
▁blender	-14.5391
▁reflected	-14.5392
▁harvested	-14.5393
▁mightiest	-14.5394
▁Swimming	-14.5396
▁Celery	-14.5405
▁bared	-14.5407
Pretty	-14.5408
maybe	-14.5408
goodbye	-14.5408
▁chore	-14.5419
▁flooding	-14.5419
▁scenes	-14.542
▁braids	-14.5421
▁Mill	-14.5421
▁Sing	-14.5424
▁crows	-14.5424
ending	-14.5429
▁pickle	-14.5431
▁Push	-14.5434
▁Clarissa	-14.5437
▁curry	-14.5437
▁Clay	-14.5437
▁Dean	-14.5437
▁Hard	-14.5437
▁sixty	-14.5437
▁suggestions	-14.5442
▁Flea	-14.5442
▁Listening	-14.5447
Mo	-14.5448
▁blossoms	-14.5451
▁woolly	-14.5456
▁pom	-14.546
▁earring	-14.5466
▁smoothed	-14.5467
▁razors	-14.5472
▁Evie	-14.5483
▁massive	-14.5483
▁recently	-14.5483
▁Jenkins	-14.5483
▁tagged	-14.5484
▁Said	-14.5487
▁Different	-14.549
▁toasty	-14.5512
▁trader	-14.5512
▁pits	-14.5513
yo	-14.5518
▁Franny	-14.553
▁washcloth	-14.553
▁Purr	-14.5533
▁hunted	-14.5544
▁painters	-14.5556
▁Throw	-14.5556
▁lad	-14.5564
▁grasses	-14.5566
▁Happiness	-14.5576
▁eerie	-14.5576
▁referee	-14.5576
▁trustworthy	-14.5576
▁treetops	-14.5576
▁peddled	-14.5577
▁Danger	-14.559
▁Dolls	-14.559
Luke	-14.5595
▁bossed	-14.5595
▁helplessly	-14.56
▁teases	-14.5609
▁speech	-14.5623
▁Paddy	-14.5623
▁cabbage	-14.5623
▁fabulous	-14.5623
▁observant	-14.5623
▁splattered	-14.5624
▁chessboard	-14.5624
▁chalkboard	-14.5624
▁produced	-14.5625
pic	-14.5627
▁upcoming	-14.5629
▁pew	-14.5631
▁Ducks	-14.5642
▁continues	-14.565
▁France	-14.5653
▁shoelace	-14.5653
▁canary	-14.5661
den	-14.5664
▁com	-14.5665
▁slim	-14.5666
▁practise	-14.5669
▁Set	-14.567
▁storyteller	-14.567
▁Nala	-14.567
▁Della	-14.567
▁meaningful	-14.5671
▁lure	-14.5671
▁shoebox	-14.5671
▁Connor	-14.5673
▁Pasta	-14.5675
▁Ten	-14.5682
pop	-14.5684
▁heavens	-14.5692
rench	-14.5703
▁ruins	-14.5714
▁Story	-14.5718
▁pigtails	-14.5718
▁public	-14.5718
▁recycle	-14.5718
▁armour	-14.5719
▁skated	-14.572
▁racecar	-14.5721
hole	-14.5725
Mister	-14.5737
Jazz	-14.5737
Math	-14.5739
▁sooo	-14.5741
▁apologizing	-14.5765
▁croissant	-14.5765
▁slingshot	-14.5765
▁demonstrated	-14.5766
▁Mind	-14.5767
▁seaside	-14.5768
▁BEEP	-14.5768
oll	-14.577
▁blasted	-14.5773
▁Crazy	-14.5778
▁cleverest	-14.5779
▁Count	-14.578
Wisdom	-14.5785
▁stumbles	-14.5798
lit	-14.5804
eddy	-14.5807
▁plugs	-14.5809
▁involve	-14.5813
▁bubblegum	-14.5813
▁client	-14.5813
▁cooperative	-14.5813
▁hired	-14.5814
▁clucking	-14.5816
low	-14.5821
▁fro	-14.5821
Park	-14.5833
organize	-14.5833
▁Oil	-14.5833
▁pre	-14.5843
▁whistler	-14.5844
▁Frightened	-14.5861
▁Snowflake	-14.5861
▁Stacey	-14.5861
▁boundaries	-14.5861
▁Shawn	-14.5861
▁Marla	-14.5861
▁violet	-14.5861
▁Lizard	-14.5861
▁mid	-14.5862
▁clubhouse	-14.5862
▁Berry	-14.5862
▁mattresses	-14.5864
▁Wind	-14.5867
▁freeing	-14.5871
eith	-14.5878
Water	-14.5881
Mikey	-14.5882
▁Potato	-14.5902
ocket	-14.5902
▁daydream	-14.5908
œSorry	-14.5908
▁Yuck	-14.5909
▁frost	-14.5909
▁Titi	-14.591
▁butcher	-14.591
▁merrily	-14.591
ylie	-14.591
œDad	-14.592
▁planks	-14.5921
Could	-14.5929
Jonny	-14.5929
iver	-14.593
iz	-14.5933
▁seatbelts	-14.5952
▁Pierre	-14.5958
▁anniversary	-14.5958
▁disease	-14.5958
▁hilarious	-14.5958
▁sh	-14.596
▁Flower	-14.5961
Grape	-14.5962
ola	-14.5963
▁begins	-14.5969
q	-14.5978
▁Whatever	-14.5978
Tree	-14.5978
▁blossom	-14.599
▁gods	-14.5991
▁Stripe	-14.5992
▁grilled	-14.5993
▁sparked	-14.5994
▁Five	-14.5997
▁cure	-14.5998
▁manner	-14.6004
▁convincing	-14.6007
▁fancier	-14.6007
▁transformation	-14.6007
▁speckled	-14.6007
▁judgement	-14.6008
▁swooping	-14.6009
▁prouder	-14.601
▁Pigeon	-14.601
▁fished	-14.6012
▁politeness	-14.6014
rk	-14.6017
working	-14.6022
pp	-14.6024
▁rancher	-14.6027
Mind	-14.6027
Share	-14.6027
▁Bring	-14.6028
▁Besides	-14.603
ax	-14.6044
▁badges	-14.6046
▁gallop	-14.6054
▁smudge	-14.6055
▁ruff	-14.6056
▁Cautiously	-14.6056
▁Flame	-14.6056
▁eachother	-14.6056
▁fairytale	-14.6056
▁glossy	-14.6056
▁beady	-14.6057
▁mow	-14.6058
▁smashing	-14.6058
▁sentences	-14.6059
▁Feather	-14.606
▁East	-14.6066
▁Pie	-14.6072
give	-14.6072
▁cleverly	-14.6081
▁Stand	-14.6088
▁lo	-14.6088
fu	-14.6094
▁cartwheels	-14.6096
▁grilling	-14.6101
▁creep	-14.6104
Woah	-14.6105
▁Tanya	-14.6105
▁extinguisher	-14.6105
▁grizzly	-14.6105
▁honour	-14.6105
▁responsibly	-14.6105
▁soothed	-14.6106
▁heeded	-14.6107
▁creaky	-14.6107
▁cooing	-14.6107
ware	-14.6109
▁Beetle	-14.6111
▁Sail	-14.6115
▁Wine	-14.612
▁ladle	-14.6122
Ding	-14.6122
boom	-14.6123
Yield	-14.6126
▁Soap	-14.6134
▁Start	-14.6138
▁weakly	-14.6146
▁Tea	-14.615
▁chant	-14.6153
▁document	-14.6155
▁Cooking	-14.6155
▁briefcase	-14.6155
▁Lula	-14.6155
▁bandana	-14.6156
Exit	-14.6156
▁sharpening	-14.6157
▁ripest	-14.616
lf	-14.6178
▁Mu	-14.619
▁delicately	-14.619
run	-14.6198
▁ooh	-14.6202
▁reflect	-14.6203
▁conflicts	-14.6204
▁avail	-14.6205
▁Porky	-14.6205
▁fiery	-14.6205
▁furthest	-14.6205
▁research	-14.6205
▁revved	-14.6205
▁untidy	-14.6205
▁Beaky	-14.6205
▁Counting	-14.6206
▁rushes	-14.6207
▁snored	-14.6207
▁Climb	-14.6208
▁donut	-14.621
œthank	-14.6213
▁skilled	-14.6217
▁Onion	-14.6218
▁avoiding	-14.6218
▁Mar	-14.6219
back	-14.6224
Mail	-14.6226
Believe	-14.6226
Hmmm	-14.6229
here	-14.6229
▁Pinch	-14.6238
▁Ear	-14.624
▁generations	-14.6246
▁buck	-14.6255
Left	-14.6255
▁toppled	-14.6255
▁Bumble	-14.6255
▁Paper	-14.626
▁lowest	-14.626
▁complaints	-14.6262
ign	-14.6265
Wheeee	-14.6268
Throw	-14.6276
Teacher	-14.6276
▁numbering	-14.628
ready	-14.6281
▁ripple	-14.629
▁prisoner	-14.6291
▁Lilli	-14.6304
▁perhaps	-14.6305
▁tart	-14.6305
▁Barkley	-14.6305
▁exception	-14.6305
Plane	-14.6305
▁flowerbed	-14.6307
▁l	-14.631
▁Lazy	-14.6311
▁speakers	-14.6342
▁French	-14.6355
▁Marvin	-14.6355
▁scowling	-14.6356
▁Boots	-14.6357
▁stamping	-14.636
▁Skye	-14.6361
onnie	-14.6364
▁Lunch	-14.637
four	-14.6377
yay	-14.6384
▁ducky	-14.6402
▁mumbled	-14.6406
▁uneven	-14.6406
▁Miller	-14.6406
▁threatening	-14.6407
▁boredom	-14.6407
▁Easter	-14.6407
unning	-14.641
œLucy	-14.6411
▁Mop	-14.6415
▁Ink	-14.6426
▁deliciousness	-14.6431
ye	-14.6449
▁unravel	-14.6456
▁Fast	-14.6457
occo	-14.6457
▁cooperation	-14.6457
▁courtyard	-14.6457
▁huh	-14.6457
▁hungrily	-14.6457
▁memorable	-14.6457
▁system	-14.6457
▁hiking	-14.6457
▁fluffed	-14.6459
▁Skeleton	-14.6459
▁Shrimp	-14.6466
box	-14.6466
▁Popcorn	-14.6474
▁handling	-14.6475
▁Frances	-14.6476
▁doze	-14.6479
Spicy	-14.648
Pay	-14.648
▁w	-14.6496
▁Dani	-14.6503
▁beats	-14.6504
▁flesh	-14.6508
▁unroll	-14.6508
▁devoured	-14.6509
▁Mixy	-14.6509
▁shoved	-14.6509
▁madder	-14.651
▁overcoming	-14.651
▁searches	-14.6515
▁Paint	-14.6515
œit	-14.6517
yla	-14.6536
▁fighter	-14.6542
▁pathways	-14.6545
▁grades	-14.6554
▁prop	-14.6556
▁Pirate	-14.6556
▁youths	-14.6558
▁prefer	-14.656
▁Daughter	-14.656
▁Fierce	-14.656
▁downstream	-14.656
▁frilly	-14.656
▁Maggy	-14.656
▁ferri	-14.656
▁Chad	-14.656
▁Taffy	-14.656
▁crate	-14.656
▁straightened	-14.6561
▁payment	-14.6561
▁ramps	-14.658
Hannah	-14.6583
Gas	-14.6583
play	-14.6584
cent	-14.6592
responsibilities	-14.6612
▁Bart	-14.6612
▁Fritz	-14.6612
▁choking	-14.6612
▁eternity	-14.6612
▁inquisitive	-14.6612
▁quarter	-14.6612
▁tender	-14.6612
▁sulked	-14.6612
▁Alligator	-14.6616
▁Hunter	-14.6616
ead	-14.6617
▁core	-14.6626
▁fishies	-14.6626
▁Watching	-14.663
▁pondered	-14.6631
Marry	-14.6635
▁stubbornly	-14.6649
▁Buttercup	-14.6664
▁Dark	-14.6664
▁cafeteria	-14.6664
▁crevice	-14.6664
▁backseat	-14.6664
▁persevered	-14.6664
▁flickering	-14.6666
▁Mousey	-14.6668
œlet	-14.6668
▁leashes	-14.6668
eb	-14.6673
Aha	-14.6681
Monkey	-14.6687
Maddie	-14.6687
cross	-14.6693
making	-14.6695
▁truthful	-14.6695
▁plum	-14.6696
▁combination	-14.6704
▁role	-14.6704
▁passerby	-14.6716
▁sidelines	-14.6716
▁Blackie	-14.6716
▁poorly	-14.6716
▁Gun	-14.6717
œThose	-14.6722
▁products	-14.6723
▁Learn	-14.673
▁Penguin	-14.673
▁mmm	-14.6734
Mix	-14.674
grandma	-14.674
▁flowery	-14.6741
Snow	-14.6742
urn	-14.6742
ggle	-14.6749
▁bolts	-14.6751
▁Julian	-14.6754
▁strive	-14.6755
▁darkest	-14.6755
œNot	-14.6756
▁swish	-14.6767
▁Hilda	-14.6769
▁appreciating	-14.6769
▁tattered	-14.6769
▁tragedy	-14.6769
▁daycare	-14.6769
▁galloping	-14.677
▁nook	-14.6772
œTime	-14.6774
▁fitted	-14.6774
▁snacking	-14.6776
▁Steph	-14.6777
▁souvenirs	-14.6782
Arr	-14.6784
▁boatman	-14.6788
Almost	-14.6793
hhh	-14.6805
Maria	-14.6811
▁quench	-14.6821
▁strangely	-14.6822
▁Georgia	-14.6822
▁recycling	-14.6822
▁gut	-14.6822
▁lane	-14.6822
▁trotting	-14.6822
▁Dinah	-14.6822
▁Sack	-14.6822
▁relaxation	-14.6823
▁outsmarted	-14.6823
▁Lori	-14.6823
▁Bald	-14.6825
▁ticked	-14.6826
Chirp	-14.6846
Anything	-14.6846
?''	-14.6849
▁fabrics	-14.6855
▁Elliot	-14.6875
▁Lewis	-14.6875
▁duty	-14.6875
▁radiat	-14.6875
▁raspberry	-14.6875
▁adventuring	-14.6875
▁Nicole	-14.6875
▁Somehow	-14.6876
▁priceless	-14.6876
▁Dotty	-14.6877
œwhat	-14.6878
▁Jumping	-14.6878
Pat	-14.6879
Bo	-14.6881
▁peep	-14.6888
▁replying	-14.6895
▁strongly	-14.6896
▁tiptoe	-14.6917
▁blind	-14.6927
▁Blocks	-14.6928
▁virus	-14.6928
abracadabra	-14.6928
▁racket	-14.6928
▁Lala	-14.6928
▁Duckie	-14.6929
▁tucking	-14.6935
▁meantime	-14.6941
▁dents	-14.6948
▁rudely	-14.6948
▁miners	-14.6953
yield	-14.6953
Six	-14.6955
▁Grab	-14.6958
▁tadpoles	-14.6959
▁Sa	-14.6979
▁decrease	-14.6981
▁misbehave	-14.6981
▁coax	-14.6981
Excellent	-14.6982
▁drunk	-14.6982
▁ringmaster	-14.6982
▁shaping	-14.6982
▁dashboard	-14.6982
▁failure	-14.6982
▁Mattie	-14.6983
œYeah	-14.699
▁Success	-14.6995
▁Deep	-14.6996
mores	-14.702
▁onboard	-14.7022
▁raged	-14.7031
▁protest	-14.7035
▁photograph	-14.7035
▁thaw	-14.7036
▁Majesty	-14.7036
▁altogether	-14.7036
▁fragrance	-14.7036
▁sample	-14.7036
▁scariest	-14.7036
▁Bingo	-14.7036
▁Lance	-14.7036
▁dozen	-14.7036
▁tv	-14.7037
▁angle	-14.7037
▁hopper	-14.7039
▁Guard	-14.7039
▁grind	-14.7041
▁Gold	-14.705
▁justice	-14.7055
Spider	-14.7062
sometimes	-14.7062
Gus	-14.7062
Aunt	-14.7063
▁Teacher	-14.7068
ahh	-14.7069
nock	-14.7069
▁recommendations	-14.7072
▁Lin	-14.7073
▁consider	-14.7088
▁Nat	-14.709
▁Margie	-14.7091
▁dragonflies	-14.7091
▁temper	-14.7091
▁Dilly	-14.7091
▁Shop	-14.7091
▁Pippy	-14.7091
irsty	-14.7093
▁aiming	-14.7093
▁brownies	-14.7096
▁Barber	-14.7096
▁looping	-14.7099
▁Painting	-14.71
▁wildest	-14.7104
wed	-14.7108
▁bossing	-14.7118
ep	-14.7124
▁rescuer	-14.7136
star	-14.7139
▁shove	-14.7141
Sit	-14.7143
▁unfold	-14.7143
▁knead	-14.7144
▁leaders	-14.7145
▁Sc	-14.7145
▁Bunbun	-14.7145
▁grime	-14.7145
▁shepherd	-14.7145
▁teacup	-14.7145
▁yeah	-14.7145
▁Lord	-14.7145
▁menacing	-14.7145
Plant	-14.7145
▁questioning	-14.7165
bed	-14.7168
Jeff	-14.7171
woof	-14.7171
sure	-14.7174
▁thundering	-14.7176
▁pity	-14.7178
zip	-14.7182
eight	-14.7185
Beth	-14.7187
▁Bozo	-14.72
▁Lancelot	-14.72
▁headband	-14.72
▁satisfying	-14.7201
▁blossomed	-14.7201
▁hospitality	-14.7202
▁roasting	-14.7203
▁posted	-14.7205
▁Fruit	-14.7209
▁walker	-14.7225
cake	-14.7226
green	-14.7227
▁orderly	-14.723
▁itching	-14.7237
▁classmate	-14.7247
▁improvement	-14.7247
six	-14.7251
▁Min	-14.7254
▁Cotton	-14.7255
▁unfreeze	-14.7255
▁drumstick	-14.7256
▁jingled	-14.7257
▁Tomi	-14.7258
gl	-14.7262
Yo	-14.7267
▁shutting	-14.7273
ches	-14.7278
▁pranks	-14.7299
▁clicks	-14.73
ade	-14.73
▁belonging	-14.7306
mail	-14.7309
STOP	-14.7311
▁Scared	-14.7311
▁fragrant	-14.7311
▁garlic	-14.7311
▁snout	-14.7311
▁jersey	-14.7311
Winning	-14.7317
door	-14.7317
aking	-14.7319
▁Apples	-14.732
▁Deaf	-14.7324
▁Cop	-14.7329
▁intentions	-14.7336
Butterfly	-14.7338
hair	-14.7339
▁Ama	-14.7339
▁award	-14.7343
▁Catch	-14.7347
wn	-14.7347
ila	-14.7357
▁fulfill	-14.7365
wing	-14.7366
ING	-14.7367
▁Stuart	-14.7367
▁parachute	-14.7367
▁vivid	-14.7367
▁infected	-14.7367
▁Bumpy	-14.7367
▁overalls	-14.7367
▁tosses	-14.7367
▁sucking	-14.7369
▁ached	-14.737
▁squishing	-14.737
▁Worms	-14.7372
eek	-14.7374
▁Sign	-14.7377
Baking	-14.7379
▁cleanest	-14.7381
con	-14.7383
ank	-14.7385
Liz	-14.7392
Doggy	-14.7394
▁Hal	-14.7402
▁oblige	-14.7422
▁moan	-14.7422
Marriage	-14.7423
▁vain	-14.7423
▁choppy	-14.7423
▁tipping	-14.7424
▁choked	-14.7425
▁baaed	-14.7426
▁Pin	-14.7426
Trying	-14.743
yuck	-14.7451
▁span	-14.7462
▁drained	-14.7463
▁Em	-14.7464
▁sharper	-14.7465
▁buttery	-14.747
oss	-14.747
▁glint	-14.7477
▁divide	-14.7478
Sh	-14.7479
▁qualities	-14.7479
▁wheelchair	-14.7479
▁kiwi	-14.7479
▁wealthier	-14.748
▁slug	-14.748
▁Tick	-14.748
▁Minty	-14.7481
▁Steam	-14.7484
▁competed	-14.7486
▁Stick	-14.7491
▁Food	-14.7492
▁stormed	-14.7494
take	-14.7495
▁Hide	-14.7501
Spray	-14.7507
▁Ping	-14.7514
nknown	-14.7518
Squ	-14.7521
read	-14.7531
▁triumphant	-14.7536
▁barbershop	-14.7536
▁feat	-14.7536
▁rainstorm	-14.7536
▁virtue	-14.7536
▁Lolly	-14.7536
▁Acorn	-14.7537
▁vacuumed	-14.7538
œExc	-14.7545
▁Parrot	-14.7547
▁Tam	-14.7553
Whoever	-14.7565
nine	-14.7565
Candy	-14.7574
▁product	-14.7586
tty	-14.759
angaroo	-14.7593
▁fifth	-14.7593
▁Napping	-14.7593
▁rooftop	-14.7594
▁dusting	-14.7606
▁encourages	-14.7608
behaved	-14.7622
shrink	-14.7622
Luna	-14.7622
Larry	-14.7622
Dolly	-14.7623
▁Curly	-14.7651
▁Mallory	-14.7651
▁intense	-14.7651
▁jingling	-14.7651
▁kilos	-14.7651
▁mould	-14.7651
▁recital	-14.7651
▁swatted	-14.7651
ction	-14.7656
▁pauses	-14.7657
▁treating	-14.7666
▁housework	-14.7669
ali	-14.767
Banana	-14.768
▁darken	-14.7706
▁twitch	-14.7707
elease	-14.7709
▁Above	-14.7709
▁Blossom	-14.7709
▁ahhed	-14.7709
▁compartment	-14.7709
▁flexibility	-14.7709
▁origami	-14.7709
▁cancelled	-14.7709
▁Sunflower	-14.7709
▁Elise	-14.7709
▁Cory	-14.7709
▁Blinky	-14.771
▁crunched	-14.7712
ater	-14.7714
▁raging	-14.7716
▁entirely	-14.7718
▁Fill	-14.772
▁Mya	-14.7726
seven	-14.7726
▁ya	-14.7729
aise	-14.7731
▁bale	-14.7761
▁graze	-14.7766
▁Barb	-14.7766
▁Dash	-14.7767
▁Jordan	-14.7767
▁hammock	-14.7767
▁snoozing	-14.7767
▁tennis	-14.7767
▁Lottie	-14.7767
▁antics	-14.7767
▁Band	-14.7768
▁fr	-14.7773
pom	-14.7774
ule	-14.7781
▁shortly	-14.7787
▁fasten	-14.7792
▁whirl	-14.7792
▁celebrations	-14.7795
elderly	-14.7797
▁leaked	-14.7801
▁wonderfully	-14.7806
▁neighs	-14.7808
lip	-14.7813
▁nuzzle	-14.7819
▁overflow	-14.7823
eliable	-14.7825
hinoceros	-14.7825
▁certificate	-14.7825
▁colony	-14.7825
▁hydrated	-14.7825
▁unhealthy	-14.7825
▁Peaches	-14.7825
Yep	-14.7825
▁Pia	-14.7826
▁stranded	-14.7826
▁Ahead	-14.7826
▁glinted	-14.7826
▁swimmers	-14.7827
Ti	-14.7828
▁Harvey	-14.7829
ella	-14.7834
▁cargo	-14.7849
▁Tonight	-14.7853
see	-14.7855
Sweetheart	-14.7855
▁Tu	-14.7857
▁Fr	-14.7859
▁Emi	-14.7875
▁Worm	-14.7878
▁culture	-14.7879
▁apologise	-14.7883
▁swor	-14.7884
▁Opal	-14.7884
▁Sonia	-14.7884
▁Teresa	-14.7884
▁shrugging	-14.7884
▁Lucia	-14.7884
▁Honesty	-14.7884
▁disobeying	-14.7888
▁honestly	-14.789
win	-14.7898
▁chemicals	-14.7903
▁bursting	-14.7904
▁stinging	-14.7911
Coco	-14.7914
Perfect	-14.7914
Samantha	-14.7915
blue	-14.7915
each	-14.7917
▁Cate	-14.7922
▁Pee	-14.7937
▁speeded	-14.7941
oice	-14.7941
Circus	-14.7943
▁Arnold	-14.7943
▁Madison	-14.7943
▁Morty	-14.7943
▁email	-14.7943
▁marvelous	-14.7943
▁Perry	-14.7943
▁Gerald	-14.7946
▁reporter	-14.7947
▁Clouds	-14.7947
▁gracefulness	-14.7948
▁angles	-14.7954
▁eyebrows	-14.7955
▁Spaghetti	-14.7962
▁amounts	-14.797
piece	-14.7974
▁Pay	-14.7978
▁require	-14.8002
▁stink	-14.8002
▁Novel	-14.8003
▁Square	-14.8003
▁opponent	-14.8003
▁ninety	-14.8003
▁seventy	-14.8003
▁Bucky	-14.8003
▁shrieked	-14.8003
▁campers	-14.8004
▁portal	-14.8005
▁Mushroom	-14.8008
▁Sour	-14.8012
▁amazingly	-14.8014
œLittle	-14.8014
▁Soft	-14.8019
▁owie	-14.8027
▁cowgirls	-14.8029
▁coldness	-14.8033
Jacob	-14.8034
snap	-14.8036
Abby	-14.8037
▁Pri	-14.8038
▁weekends	-14.8039
Mumma	-14.8044
ivi	-14.8048
ue	-14.8052
▁stinger	-14.8053
▁Whe	-14.8056
▁nudge	-14.8057
▁Bri	-14.8063
▁Witch	-14.8063
▁north	-14.8063
▁extended	-14.8063
ora	-14.8067
▁Shake	-14.8074
▁token	-14.8078
▁eyed	-14.8082
water	-14.8089
▁doggies	-14.8092
Books	-14.8094
Spring	-14.8094
zi	-14.8105
▁hating	-14.8105
▁Liv	-14.8115
▁Elena	-14.8123
▁Nevertheless	-14.8123
▁stooped	-14.8123
▁waft	-14.8123
▁Andrea	-14.8123
▁Maia	-14.8123
▁flushed	-14.8124
▁gentlemen	-14.8125
inny	-14.8126
▁splashy	-14.8129
▁Cloud	-14.813
▁rhymes	-14.813
▁Jac	-14.8133
▁Clean	-14.8142
Mouse	-14.8155
March	-14.8165
Neigh	-14.8177
Ball	-14.8178
▁preparation	-14.818
▁noodle	-14.818
▁pil	-14.8181
▁smirk	-14.8183
▁Had	-14.8183
▁Elmer	-14.8184
▁judging	-14.8184
▁pretzel	-14.8184
▁receptionist	-14.8184
▁rollercoaster	-14.8184
▁chomped	-14.8184
▁dipping	-14.8184
▁marketplace	-14.8184
Johny	-14.8188
▁Cricket	-14.8189
▁freshest	-14.819
▁Golf	-14.8193
▁eighty	-14.8193
▁swallows	-14.8195
▁Bark	-14.8197
▁Mon	-14.8199
len	-14.8215
Drop	-14.8216
repeat	-14.8216
▁basics	-14.8223
▁holder	-14.8227
▁dec	-14.8235
open	-14.8236
▁scuttl	-14.8242
▁Angus	-14.8245
▁chorus	-14.8245
▁daffodil	-14.8245
▁handiwork	-14.8245
▁realising	-14.8245
▁sizzling	-14.8245
▁townsfolk	-14.8245
▁engulf	-14.8245
▁Fern	-14.8245
▁Skipping	-14.8245
▁Tucker	-14.8245
▁invented	-14.8245
Yup	-14.8247
▁forms	-14.8248
▁Turkey	-14.8248
œYummy	-14.825
▁Flexible	-14.8251
ase	-14.8251
▁growth	-14.8252
▁nervousness	-14.8252
Po	-14.8255
▁scan	-14.8259
▁Delicious	-14.8269
face	-14.8274
drop	-14.8275
Claire	-14.8277
▁Swans	-14.828
ette	-14.8281
▁wilder	-14.8283
▁reasons	-14.8289
anger	-14.8294
▁ensure	-14.8296
▁cooling	-14.8301
▁vow	-14.8302
ked	-14.8304
▁dribbling	-14.8306
▁traveller	-14.8306
▁jewellery	-14.8306
▁Alina	-14.8306
▁Cally	-14.8307
▁Iris	-14.8309
▁thumping	-14.8312
book	-14.832
nyone	-14.8329
▁Snakes	-14.8337
▁flyers	-14.8337
nite	-14.8339
▁fisher	-14.8339
Tonight	-14.8353
▁Prunes	-14.8355
AC	-14.8355
▁somersault	-14.8365
uffy	-14.8367
atrina	-14.8368
Buy	-14.8368
▁Magnet	-14.8368
▁drenched	-14.8368
▁pausing	-14.8368
▁snorkel	-14.8368
▁dread	-14.8368
▁Night	-14.8368
▁unity	-14.8368
Lemonade	-14.8368
▁Mee	-14.8368
▁pleasantly	-14.837
▁Jana	-14.837
▁Strong	-14.8371
▁Ghost	-14.8372
▁elsewhere	-14.8372
trapped	-14.8373
▁Leopard	-14.8376
▁Steak	-14.8376
▁Fuel	-14.8383
▁Cal	-14.8388
▁beavers	-14.8399
Daniel	-14.8401
Sunny	-14.8401
▁lightest	-14.8403
▁Tap	-14.8406
▁pier	-14.8419
▁antennas	-14.8423
▁dash	-14.8429
▁drawbridge	-14.843
▁ignorance	-14.843
▁previous	-14.843
▁unpleasant	-14.843
▁Jem	-14.843
▁advised	-14.843
▁Missile	-14.843
▁selected	-14.843
▁rubble	-14.8431
▁adopted	-14.8432
▁Chester	-14.8435
▁banners	-14.8436
▁regretting	-14.8437
▁puffing	-14.8438
▁Clap	-14.845
Win	-14.8453
Duck	-14.8463
History	-14.8463
Mabel	-14.8463
tasting	-14.8463
▁Tobi	-14.8472
▁prison	-14.8492
Strike	-14.8492
▁controller	-14.8492
▁snowstorm	-14.8492
▁strumming	-14.8492
▁supervision	-14.8492
▁thirteen	-14.8492
▁Brain	-14.8492
▁shimmery	-14.8493
▁snugly	-14.8495
▁expressing	-14.8498
▁fainted	-14.8499
▁cheapest	-14.8499
▁rafting	-14.851
▁Teach	-14.8511
▁Willa	-14.8513
▁Spin	-14.8525
Maddy	-14.8526
Sweetie	-14.8527
ainbows	-14.8528
▁Pass	-14.8544
▁quiver	-14.8553
▁scowl	-14.8553
▁superpowers	-14.8554
▁Saturn	-14.8555
▁Amaya	-14.8555
▁impatience	-14.8555
▁kitties	-14.8555
▁smack	-14.8555
▁storeowner	-14.8555
▁Ariel	-14.8555
▁curb	-14.8555
▁coward	-14.8555
▁limeade	-14.8555
▁puckered	-14.8557
œbut	-14.8559
▁Corn	-14.856
aj	-14.8565
Bees	-14.8568
▁Train	-14.857
▁Words	-14.8577
▁Poison	-14.8581
▁obeying	-14.8584
▁modestly	-14.8585
Closed	-14.8585
▁Spi	-14.8588
▁Allowed	-14.8618
▁Pastel	-14.8618
▁safekeeping	-14.8618
▁skeptical	-14.8618
▁vigorously	-14.8618
Easy	-14.8618
▁reddest	-14.8618
▁Fireman	-14.8619
▁postbox	-14.8619
▁moldy	-14.8619
▁protested	-14.8619
▁quarrelled	-14.862
▁attempted	-14.8621
cal	-14.8621
▁Wheat	-14.8624
gle	-14.8627
▁Dana	-14.8628
▁rev	-14.8629
▁opener	-14.8634
▁Someday	-14.8634
▁Browny	-14.8636
Again	-14.8653
▁sacked	-14.8662
Pam	-14.8665
▁boop	-14.8669
▁Bananas	-14.867
▁Fay	-14.8682
▁taco	-14.8682
▁Grandfather	-14.8682
▁Troy	-14.8682
▁Wilson	-14.8682
▁caretaker	-14.8682
▁clumsily	-14.8682
▁concentration	-14.8682
▁ferocious	-14.8682
▁handcuffs	-14.8682
▁kindergarten	-14.8682
▁renewed	-14.8682
▁slumped	-14.8682
▁selection	-14.8682
▁knitted	-14.8682
▁clasped	-14.8683
▁reassuringly	-14.8683
▁medic	-14.8687
▁marrying	-14.8692
Li	-14.8694
▁feasted	-14.8695
▁per	-14.8704
▁predators	-14.8707
Feed	-14.8717
▁soften	-14.8737
▁relationships	-14.8742
▁possibl	-14.8745
▁receipt	-14.8746
▁trolley	-14.8746
▁aahed	-14.8746
▁constantly	-14.8746
▁treatment	-14.8749
▁blackbird	-14.875
▁polishes	-14.8751
▁trumpeted	-14.8752
▁Mal	-14.8763
▁jumpy	-14.8768
ttle	-14.877
mit	-14.8771
▁commands	-14.8776
fashioned	-14.8782
Peace	-14.8782
Tara	-14.8783
oop	-14.8794
Merry	-14.8799
▁recover	-14.8809
▁Puss	-14.8811
▁grumpily	-14.8811
▁poodle	-14.8811
▁preferences	-14.8811
▁raspberries	-14.8811
▁Debby	-14.8811
▁fame	-14.8811
▁trespassing	-14.8811
Oink	-14.8811
▁deliveries	-14.8812
▁Surrender	-14.8813
Crawl	-14.8814
Pray	-14.8814
▁hotdog	-14.8816
▁Sharp	-14.8818
▁Octopus	-14.8818
▁Police	-14.8819
▁multipl	-14.8825
Sing	-14.8826
▁mentioning	-14.883
▁Carrots	-14.8846
ron	-14.8846
anna	-14.8861
▁invent	-14.8874
▁corridor	-14.8876
▁Shiny	-14.8876
▁clumsiness	-14.8876
▁instructed	-14.8876
▁mercy	-14.8876
▁paradise	-14.8876
▁summit	-14.8876
▁version	-14.8876
▁Bertha	-14.8876
▁haunted	-14.8876
ind	-14.888
▁spines	-14.8883
▁j	-14.8884
awr	-14.8893
▁inner	-14.8894
▁Slide	-14.8894
▁healer	-14.8898
▁whir	-14.8905
Choose	-14.8913
wash	-14.8916
▁Spiders	-14.8928
▁detectives	-14.8931
▁Eager	-14.8941
nives	-14.8941
▁Brett	-14.8941
▁bellowed	-14.8941
▁scribbling	-14.8941
▁Driver	-14.8941
▁Jayden	-14.8941
▁grunt	-14.8942
▁sunbeam	-14.8942
▁Lumber	-14.8946
▁pinecones	-14.8946
▁foolishness	-14.8947
▁superpower	-14.8947
▁sparkler	-14.8949
▁Twin	-14.8951
ou	-14.8952
▁Exercise	-14.8953
late	-14.8956
aja	-14.8962
za	-14.8966
▁lack	-14.8968
Meet	-14.8971
thing	-14.8977
Elephant	-14.8978
would	-14.8978
Tiny	-14.8978
Brownie	-14.8978
▁Yield	-14.8979
eindeer	-14.9007
▁Blaze	-14.9007
▁Francis	-14.9007
▁Gertrude	-14.9007
▁duties	-14.9007
▁pyramid	-14.9007
▁boing	-14.9007
▁Nation	-14.9007
Studying	-14.9007
▁Jewel	-14.901
▁marches	-14.9013
▁nor	-14.9018
emi	-14.9025
olo	-14.9026
▁toasted	-14.9032
▁Allen	-14.9036
▁camels	-14.9041
Janie	-14.9044
fives	-14.9046
loop	-14.9055
ien	-14.9063
▁chunks	-14.9068
▁link	-14.9072
▁Mario	-14.9073
▁fidget	-14.9073
Whoosh	-14.9073
▁Street	-14.9073
▁advisor	-14.9073
▁fourteen	-14.9073
▁severe	-14.9073
▁accessory	-14.9073
ric	-14.9073
▁Bridget	-14.9073
▁dribbled	-14.9075
▁curling	-14.9081
▁br	-14.9082
eat	-14.9086
▁Long	-14.9087
▁secured	-14.9091
▁explodes	-14.9102
Work	-14.9111
▁Goat	-14.9111
Snake	-14.9111
Avery	-14.9111
itch	-14.9111
Ducky	-14.9111
▁towering	-14.9122
œBob	-14.9125
▁Call	-14.9129
wo	-14.913
▁snarl	-14.9138
▁brat	-14.9138
ssssssssssssssss	-14.9139
Aaaah	-14.914
▁Game	-14.914
▁assistance	-14.914
▁discount	-14.914
▁scruffy	-14.914
▁tusks	-14.914
▁unknowingly	-14.914
▁drool	-14.914
▁disrespectful	-14.914
▁alleyway	-14.914
▁ripping	-14.914
▁claimed	-14.9141
▁Bathing	-14.9141
▁awoken	-14.9142
isa	-14.9142
▁difficulties	-14.9142
▁Triangle	-14.9144
▁fairness	-14.9152
œwe	-14.9153
▁stuffy	-14.9171
Higher	-14.9178
Chloe	-14.9178
Before	-14.9178
Pop	-14.9193
▁maple	-14.9202
▁crush	-14.9205
▁recognise	-14.9206
▁boar	-14.9206
▁reluctant	-14.9206
▁Elmo	-14.9207
▁Sylvester	-14.9207
▁duo	-14.9207
▁elated	-14.9207
▁frolicked	-14.9207
▁navigate	-14.9207
▁occurred	-14.9207
▁signature	-14.9207
▁unattended	-14.9207
▁blaring	-14.9207
▁Jacklyn	-14.9207
▁hue	-14.9207
▁cancel	-14.9208
▁wrinkle	-14.9209
▁mitt	-14.921
▁crest	-14.9214
▁dozing	-14.9228
▁playdough	-14.9228
nd	-14.9238
ima	-14.9243
Lucky	-14.9246
Bring	-14.9246
quack	-14.9248
▁scents	-14.9255
▁Eagle	-14.9274
▁erasing	-14.9274
▁sensitive	-14.9274
▁stabbed	-14.9274
▁Slimy	-14.9275
ichie	-14.9275
▁witnessed	-14.9276
▁schoolwork	-14.9278
▁Gum	-14.9288
ctor	-14.9291
▁arf	-14.9292
▁Save	-14.9298
Wasn	-14.9301
lock	-14.9311
▁arguments	-14.9313
Snap	-14.9314
leaf	-14.9314
▁Leon	-14.9318
▁Mai	-14.9322
▁Foo	-14.934
▁Clever	-14.9342
▁Greed	-14.9342
▁coyote	-14.9342
▁iceberg	-14.9342
▁junkyard	-14.9342
▁Eddy	-14.9342
▁sillier	-14.9343
▁archery	-14.9343
▁gatekeeper	-14.9344
▁seedling	-14.9344
▁inspiring	-14.9345
▁hooting	-14.9346
▁icicle	-14.9346
▁shaved	-14.9348
▁Original	-14.9354
œLily	-14.9359
▁Cell	-14.9359
eeping	-14.9379
▁Cam	-14.938
▁Marry	-14.938
New	-14.9382
Paula	-14.9383
ized	-14.9387
tell	-14.9388
nut	-14.9396
▁ironed	-14.9397
▁pests	-14.94
▁mateys	-14.9404
fast	-14.9405
▁squint	-14.9409
▁cycle	-14.941
▁construct	-14.9411
▁BOOM	-14.9411
▁Drawing	-14.9411
▁crazier	-14.9411
▁hydrant	-14.9411
▁tame	-14.9411
▁Louisa	-14.9411
▁issue	-14.9411
▁drooping	-14.9412
▁screeching	-14.9414
▁Store	-14.9416
▁darkened	-14.9417
▁Honest	-14.9419
▁buns	-14.9424
▁nooks	-14.9426
œno	-14.9444
Mmmmm	-14.945
▁feathery	-14.9451
▁Fee	-14.9454
▁gentler	-14.9461
▁Hat	-14.9466
Nick	-14.9468
pan	-14.9469
▁restful	-14.947
▁whee	-14.9475
Fragile	-14.948
▁Tiffany	-14.948
▁galaxy	-14.948
▁rosemary	-14.948
▁tambourine	-14.948
▁wriggly	-14.948
▁Port	-14.948
ictoria	-14.948
Indeed	-14.948
▁Scout	-14.948
Dangerous	-14.9481
▁squirming	-14.9482
▁rainwater	-14.9482
▁relationship	-14.9485
een	-14.9487
▁makers	-14.9489
œAnd	-14.9491
▁joggers	-14.9493
▁afterward	-14.9495
▁boarding	-14.9496
▁Touch	-14.9497
▁Join	-14.9502
▁Sand	-14.9504
Poison	-14.952
Simon	-14.9521
Behave	-14.9523
▁fo	-14.9536
▁NO	-14.954
au	-14.9546
▁sparklers	-14.9549
Ladies	-14.9549
Strawberry	-14.9549
▁Anchor	-14.9549
▁clatter	-14.9549
▁elegant	-14.9549
▁intricate	-14.9549
▁schedule	-14.9549
▁Trunk	-14.9549
▁swerved	-14.955
▁cur	-14.9552
▁fatter	-14.9553
œListen	-14.9554
ppy	-14.9557
▁Toast	-14.9558
▁Salad	-14.9568
rge	-14.9568
rie	-14.9575
?'"	-14.9576
bby	-14.959
▁Jin	-14.959
lantern	-14.959
click	-14.9591
▁sa	-14.9602
▁poo	-14.9604
▁fossils	-14.9609
▁program	-14.9617
▁congratulate	-14.9619
▁Charley	-14.9619
▁Sully	-14.9619
▁unfroze	-14.9619
▁Jude	-14.9619
ced	-14.9619
▁tiniest	-14.9619
ingdom	-14.9619
▁Angelina	-14.9619
Blast	-14.9619
▁Moira	-14.9619
▁snorting	-14.9622
▁steeper	-14.9625
▁Spinning	-14.9629
▁cradle	-14.9635
▁Child	-14.9638
▁twine	-14.964
▁Freda	-14.9642
œMolly	-14.9646
Pink	-14.9661
Yoga	-14.9661
grow	-14.9661
Penny	-14.9661
▁heroic	-14.967
Hot	-14.967
▁shatter	-14.9689
▁Delilah	-14.969
▁Fireworks	-14.969
▁Jupiter	-14.969
▁toothache	-14.969
▁untouched	-14.969
▁Gilda	-14.969
▁Miley	-14.969
▁marvelled	-14.969
▁arose	-14.969
▁strained	-14.969
▁Town	-14.9691
▁responding	-14.9694
▁brightening	-14.9695
▁BANG	-14.9696
▁footing	-14.9699
Seven	-14.9699
▁artifacts	-14.9701
▁playmates	-14.9702
▁Swing	-14.9712
▁Honk	-14.9718
▁Pal	-14.9719
Pow	-14.9731
Green	-14.9732
Whiskers	-14.9732
han	-14.9733
get	-14.9737
Betty	-14.9738
Girls	-14.9755
▁Scratch	-14.976
▁favour	-14.9761
▁Casper	-14.9761
▁Olaf	-14.9761
▁frills	-14.9761
▁submarine	-14.9761
▁yolk	-14.9761
▁affection	-14.9761
▁password	-14.9761
Coming	-14.9761
▁hairbrush	-14.9761
▁Bally	-14.9762
▁Hay	-14.9763
Bike	-14.9764
acing	-14.9771
▁rudeness	-14.9773
▁Art	-14.9773
▁mis	-14.9788
found	-14.979
▁coil	-14.9795
▁Aria	-14.9802
Delicious	-14.9803
tweet	-14.9804
Was	-14.981
▁saucers	-14.9816
▁Care	-14.9819
▁achievements	-14.9832
▁splat	-14.9832
▁Frisbee	-14.9832
▁Happily	-14.9832
▁crannies	-14.9832
▁dune	-14.9832
▁spiciest	-14.9832
▁Logan	-14.9832
▁balm	-14.9832
▁Grey	-14.9832
▁Lime	-14.9832
▁Hairy	-14.9832
▁Woody	-14.9832
▁Dusty	-14.9833
▁swordfish	-14.9833
▁mowing	-14.9834
▁kiddo	-14.9835
▁roaming	-14.9836
▁pod	-14.984
own	-14.9846
Le	-14.9848
ko	-14.9851
▁drips	-14.9858
▁trinkets	-14.9858
▁exited	-14.9863
Shoot	-14.9874
Things	-14.9875
Papa	-14.9875
press	-14.9875
ual	-14.9876
Pear	-14.9891
▁na	-14.9892
▁Add	-14.9893
Sell	-14.9895
▁fuller	-14.9901
▁disgust	-14.9902
▁sulk	-14.9903
▁Clive	-14.9904
▁Safety	-14.9904
▁Steel	-14.9904
▁granddad	-14.9904
▁mural	-14.9904
▁squiggly	-14.9904
▁apologetic	-14.9904
▁toucan	-14.9904
▁humbly	-14.9904
▁passageway	-14.9904
▁Snappy	-14.9904
▁inspection	-14.9904
▁webbed	-14.9904
▁matchstick	-14.9904
▁cookbook	-14.9905
▁Ancient	-14.9914
▁Smile	-14.9928
rain	-14.9934
▁Marian	-14.9938
▁squiggles	-14.9941
will	-14.9948
Auntie	-14.9948
wait	-14.9951
ified	-14.9959
▁smoked	-14.9971
▁Jog	-14.9973
▁archer	-14.9976
Hurray	-14.9976
▁Contest	-14.9976
▁Modest	-14.9976
▁Walking	-14.9976
▁chandelier	-14.9976
▁clank	-14.9976
▁lazily	-14.9976
▁sprite	-14.9976
▁Shelby	-14.9976
▁hamper	-14.9977
▁doughnut	-14.9977
▁clinked	-14.9977
▁oinked	-14.9979
▁antenna	-14.9984
▁germ	-14.9985
cut	-14.9988
▁Any	-14.9995
fall	-15.001
▁Dream	-15.0013
Nap	-15.0021
Honk	-15.0021
Old	-15.0021
dong	-15.0024
Wash	-15.0047
▁tangle	-15.0048
▁filth	-15.0049
▁triumph	-15.0049
▁Canada	-15.0049
▁Granddad	-15.0049
▁cranny	-15.0049
▁friendlier	-15.0049
▁gluing	-15.0049
▁jolt	-15.0049
▁prodded	-15.0049
▁stammered	-15.0049
▁Swimmy	-15.0049
▁gummies	-15.0049
▁Nanny	-15.0049
▁deliveryman	-15.005
▁swiftly	-15.005
▁Bouncing	-15.0053
▁mending	-15.0055
▁ju	-15.0062
key	-15.0063
place	-15.0065
▁range	-15.0071
proving	-15.0078
▁Perfect	-15.0085
œTommy	-15.0088
▁independently	-15.0098
▁cuter	-15.0103
eke	-15.0108
Bra	-15.0118
▁Noelle	-15.0123
▁Spud	-15.0123
▁appropriate	-15.0123
▁backstage	-15.0123
▁bargain	-15.0123
▁chart	-15.0123
▁complex	-15.0123
▁hesitating	-15.0123
▁location	-15.0123
▁strung	-15.0123
▁tentatively	-15.0123
▁Week	-15.0123
▁Gear	-15.0123
▁Marge	-15.0123
▁sharpener	-15.0124
▁successes	-15.0127
▁crackled	-15.0128
▁Phew	-15.013
▁Brush	-15.013
▁Jogging	-15.0132
▁claim	-15.0135
▁Pirates	-15.0141
▁parting	-15.0162
▁Wren	-15.0164
Animal	-15.0168
▁embark	-15.0175
▁Dolphins	-15.0176
▁rounder	-15.0182
œS	-15.0194
Balloon	-15.0197
▁Brenda	-15.0197
▁Castle	-15.0197
▁Delighted	-15.0197
▁Eleanor	-15.0197
▁Stevie	-15.0197
▁instructor	-15.0197
▁messenger	-15.0197
▁salesperson	-15.0197
▁Chubby	-15.0197
▁Barbara	-15.0197
▁according	-15.0197
▁swishing	-15.0199
▁Late	-15.0199
œSarah	-15.0201
▁charmed	-15.0203
▁crafting	-15.0204
▁Power	-15.0209
▁pitched	-15.0212
▁Du	-15.0213
▁Aly	-15.0213
Coo	-15.0216
▁bumper	-15.0229
▁leftovers	-15.0231
illa	-15.0235
cre	-15.0236
Dream	-15.0243
Flower	-15.0243
▁Bath	-15.0244
▁golfers	-15.0246
ently	-15.0248
Cha	-15.025
Smell	-15.0253
▁straps	-15.0253
▁lasting	-15.0255
org	-15.0258
Hide	-15.0259
œSam	-15.0266
▁glare	-15.0271
▁Gordon	-15.0272
▁Graham	-15.0272
▁Harper	-15.0272
▁muffled	-15.0272
▁participate	-15.0272
▁pegs	-15.0272
▁operator	-15.0272
▁fried	-15.0272
▁fangs	-15.0272
▁swoosh	-15.0272
▁chanted	-15.0273
▁checkup	-15.0274
▁peer	-15.0276
▁Sidney	-15.0276
▁connecting	-15.0278
▁travelers	-15.0279
▁breakable	-15.0282
▁fossil	-15.0282
▁zagged	-15.0286
▁Lil	-15.0286
ala	-15.0289
▁lapping	-15.029
through	-15.0318
Lot	-15.0318
▁coldest	-15.0328
Oooh	-15.0335
oof	-15.0337
iri	-15.0343
▁Alyssa	-15.0347
▁awkward	-15.0347
▁clogged	-15.0347
▁disguise	-15.0347
▁loveliest	-15.0347
▁proposed	-15.0347
▁sheriff	-15.0347
▁Hood	-15.0347
Woohoo	-15.0347
▁Baker	-15.0347
▁Haley	-15.0347
▁Sonny	-15.0347
▁cling	-15.0347
▁immensely	-15.0347
▁Starry	-15.0347
▁Miki	-15.0347
▁flex	-15.0348
▁slurping	-15.0349
▁ouchie	-15.0351
▁rhinoceroses	-15.0351
▁Wiggle	-15.0358
▁stingy	-15.0359
▁Tonya	-15.0361
▁Matches	-15.0361
▁Mud	-15.0363
Nope	-15.0375
ably	-15.0376
▁topping	-15.0378
▁Grant	-15.0381
▁Book	-15.0383
▁Iron	-15.0387
▁molds	-15.0389
Oxygen	-15.0394
Squeak	-15.0394
chug	-15.0394
Spin	-15.0402
▁yo	-15.0422
Ignorant	-15.0423
▁Further	-15.0423
▁Gabe	-15.0423
▁grouchy	-15.0423
▁suds	-15.0423
▁triceratops	-15.0423
▁flowerpot	-15.0423
▁ahold	-15.0423
▁triumphantly	-15.0423
▁gleamed	-15.0423
▁sizzled	-15.0425
▁disagreements	-15.0425
▁Fancy	-15.0428
mber	-15.0429
▁Fix	-15.0431
▁Luis	-15.0432
ON	-15.0454
bee	-15.0461
whoosh	-15.047
▁cradl	-15.0481
abi	-15.0482
unk	-15.0492
▁Wood	-15.0499
ealizing	-15.0499
▁Chelsea	-15.0499
▁Floyd	-15.0499
▁crime	-15.0499
▁energised	-15.0499
▁nerves	-15.0499
▁width	-15.0499
▁Garden	-15.0499
▁Marta	-15.0499
▁Shade	-15.0499
▁Lamb	-15.0499
▁sapling	-15.0499
▁jig	-15.0499
▁Fizzy	-15.0499
▁scooting	-15.05
▁chilli	-15.0503
▁preparations	-15.0503
▁habitat	-15.0511
▁mewed	-15.0513
▁upsetting	-15.0514
▁meter	-15.0515
▁appearances	-15.0526
▁Dance	-15.0526
▁Mail	-15.0533
▁pest	-15.0545
Print	-15.0547
Squirrel	-15.0547
▁Croc	-15.0551
ried	-15.0552
▁strands	-15.0553
tocked	-15.0564
toes	-15.0566
rich	-15.0574
▁brew	-15.0575
▁Nico	-15.0576
Fetch	-15.0576
Measure	-15.0576
YES	-15.0576
▁Joshua	-15.0576
▁Washing	-15.0576
▁cavities	-15.0576
▁doomed	-15.0576
▁dusk	-15.0576
▁overwhelming	-15.0576
▁pelican	-15.0576
▁sixteen	-15.0576
▁wreath	-15.0576
▁tarp	-15.0576
▁Jared	-15.0576
▁Blueberry	-15.0576
▁projector	-15.0578
aff	-15.0578
▁whisked	-15.0579
▁Freeze	-15.0579
▁simpler	-15.0581
▁sob	-15.0585
▁Hang	-15.059
▁Ace	-15.0591
shirts	-15.0592
Money	-15.0625
Patty	-15.0625
Anne	-15.0628
Cake	-15.0636
▁clink	-15.0651
▁unscrew	-15.0653
Click	-15.0653
▁ambition	-15.0653
▁anxiety	-15.0653
▁misbehaving	-15.0653
▁Humble	-15.0653
▁earthworm	-15.0654
zagging	-15.0655
▁creeping	-15.0655
try	-15.0659
▁generation	-15.0667
ocking	-15.0672
▁labeled	-15.0702
▁jailer	-15.0704
▁Fall	-15.0706
▁woo	-15.0716
▁savanna	-15.0731
▁Jungle	-15.0732
▁Stinky	-15.0732
▁biking	-15.0732
▁centimeters	-15.0732
▁fertilizer	-15.0732
▁nozzle	-15.0732
▁unaware	-15.0732
Answer	-15.0732
▁Ladybug	-15.0732
▁Treat	-15.0732
▁shack	-15.0732
▁distraction	-15.0732
▁Denny	-15.0732
▁desired	-15.0734
▁Fli	-15.0736
▁Curiously	-15.0737
▁cartwheel	-15.0746
Matt	-15.075
▁Perhaps	-15.0756
▁apply	-15.0767
▁Len	-15.0772
legged	-15.0772
ically	-15.0773
special	-15.0782
arla	-15.0796
did	-15.0798
▁diapers	-15.0806
▁reassure	-15.0809
▁unfortunate	-15.081
▁monk	-15.081
Organizing	-15.081
▁Leslie	-15.081
▁Worry	-15.081
▁festive	-15.081
▁folk	-15.081
▁initial	-15.081
▁prickles	-15.081
▁Also	-15.081
▁Chippy	-15.081
▁Forever	-15.0811
▁director	-15.0812
▁traced	-15.0813
Lea	-15.0814
▁neighing	-15.0814
▁Stories	-15.0814
▁unloading	-15.0815
▁Free	-15.0817
▁Blow	-15.0822
▁Squeeze	-15.0825
▁couches	-15.0826
▁upright	-15.0828
uring	-15.0828
▁slowest	-15.0829
▁jeweler	-15.083
▁Squawk	-15.0832
▁Camp	-15.0836
▁Lemons	-15.0843
▁spotting	-15.0844
▁donation	-15.0845
▁Spray	-15.085
Faster	-15.0861
poison	-15.0861
Granny	-15.0861
Lulu	-15.0861
Suddenly	-15.0861
Friend	-15.0876
step	-15.0885
▁Pill	-15.0889
▁Horsy	-15.089
▁Sisi	-15.089
▁bookshelves	-15.089
▁circling	-15.089
▁entry	-15.089
▁jellybean	-15.089
▁lounging	-15.089
▁Callie	-15.089
▁sunhat	-15.089
▁Balloons	-15.089
▁Bertie	-15.089
▁Danielle	-15.089
▁Greenie	-15.089
▁whirling	-15.0891
▁courageously	-15.0892
these	-15.0903
œAll	-15.0907
chi	-15.0911
ised	-15.0911
pay	-15.0915
▁flitte	-15.0932
berries	-15.0936
▁Jena	-15.0939
Thunder	-15.0941
▁Banana	-15.0945
Dinosaur	-15.0969
Supply	-15.097
▁Clyde	-15.097
▁Desperate	-15.097
▁Jumbo	-15.097
▁Malcolm	-15.097
▁relative	-15.097
▁impression	-15.097
▁Below	-15.097
▁twittered	-15.097
▁tinkering	-15.097
▁motionless	-15.0971
onald	-15.0976
▁wa	-15.0976
▁threaded	-15.0976
umble	-15.0976
▁dollies	-15.0989
▁leaky	-15.0991
▁Choose	-15.1006
Butterflies	-15.1021
Making	-15.1022
Lizzy	-15.1022
Bubble	-15.1022
Aye	-15.1022
worker	-15.1024
Owl	-15.1029
even	-15.1034
fire	-15.1037
▁Slinky	-15.105
▁Wizard	-15.105
▁cavity	-15.105
▁diner	-15.105
▁genius	-15.105
▁grease	-15.105
▁lollies	-15.105
▁omelette	-15.105
▁organization	-15.105
▁Suki	-15.105
▁ferry	-15.105
▁gingerly	-15.1051
▁batted	-15.1051
▁transported	-15.1051
▁crumbly	-15.1052
▁lightening	-15.1052
▁tended	-15.1053
▁purchased	-15.1055
▁mightier	-15.1058
▁measurement	-15.1069
▁ledge	-15.1082
weigh	-15.1094
▁powered	-15.1098
worm	-15.1103
grandpa	-15.1103
Mila	-15.1103
▁polisher	-15.1103
patter	-15.1104
▁Socks	-15.1114
▁Toy	-15.1119
▁Mat	-15.1124
▁assemble	-15.1131
▁astounded	-15.1132
▁exotic	-15.1132
▁experiencing	-15.1132
▁pulse	-15.1132
▁stuttered	-15.1132
▁bragging	-15.1132
▁slink	-15.1132
▁Denise	-15.1132
▁Gem	-15.1132
▁Colors	-15.1132
▁array	-15.1132
uthie	-15.1133
▁portion	-15.1133
▁troublemaker	-15.1134
epair	-15.1134
▁pooped	-15.1136
▁CDs	-15.1137
▁dinnertime	-15.1143
▁unexpectedly	-15.1145
▁emotion	-15.1149
▁hens	-15.1165
▁willow	-15.1184
Gabby	-15.1185
Spike	-15.1185
Suzy	-15.1185
Nana	-15.1185
jump	-15.1185
lish	-15.1189
Grrr	-15.1196
▁soot	-15.1201
▁icicles	-15.1209
▁reunite	-15.1213
anessa	-15.1214
▁Celeste	-15.1214
▁drier	-15.1214
▁robbed	-15.1214
▁sketch	-15.1214
▁awaiting	-15.1214
▁boasted	-15.1214
▁drooped	-15.1214
▁Anny	-15.1215
▁Jeep	-15.1216
▁carelessness	-15.122
▁cawing	-15.1221
▁Sly	-15.1222
enus	-15.1223
▁Hill	-15.1227
Pull	-15.1229
▁Fake	-15.1235
anish	-15.1246
▁croc	-15.1262
splash	-15.1267
▁tr	-15.1268
▁Sock	-15.1268
œTo	-15.1269
▁foolishly	-15.1273
▁sap	-15.1281
▁Caw	-15.1288
▁Chick	-15.1296
Class	-15.1296
▁Fisherman	-15.1296
▁bulldozer	-15.1296
▁luxuries	-15.1296
▁pulp	-15.1296
▁trio	-15.1296
▁gazelle	-15.1296
▁Catherine	-15.1296
▁combine	-15.1296
▁Needle	-15.1296
▁illuminated	-15.1296
▁Chee	-15.1297
▁Jumper	-15.1297
▁Bam	-15.1298
▁generously	-15.1301
▁Cactus	-15.1302
▁nudges	-15.1302
▁Whistling	-15.1304
▁Omar	-15.1305
▁Sorting	-15.1309
▁Button	-15.1317
▁Seek	-15.1324
▁splint	-15.1332
Coffee	-15.1351
▁largest	-15.1355
▁Butch	-15.136
▁qu	-15.1365
▁hire	-15.1369
œJoe	-15.1371
▁locker	-15.1377
▁scamper	-15.1378
ible	-15.1378
▁descend	-15.1379
▁Allison	-15.138
▁Cheryl	-15.138
▁Nadia	-15.138
▁Petunia	-15.138
▁examination	-15.138
▁laziness	-15.138
▁hull	-15.138
▁sleek	-15.138
▁Emilia	-15.138
adish	-15.138
▁Lung	-15.138
nderstand	-15.138
▁Jonas	-15.138
▁cackled	-15.138
▁mansion	-15.138
▁scampering	-15.1381
▁brewing	-15.1381
▁knowingly	-15.1384
▁Sauce	-15.1386
▁Squash	-15.1387
▁tricking	-15.1395
▁Swinging	-15.1395
▁Tiki	-15.1396
▁rage	-15.1397
▁subject	-15.1399
▁twirly	-15.1399
uiet	-15.1403
nee	-15.1407
bly	-15.1409
▁dye	-15.1417
▁Six	-15.1425
Patience	-15.1435
Michael	-15.1435
Lemon	-15.1435
value	-15.1435
Whatever	-15.1437
▁Abe	-15.1447
▁forked	-15.1447
▁represent	-15.1463
▁hotdogs	-15.1463
▁Hundreds	-15.1464
▁caboose	-15.1464
▁contagious	-15.1464
▁nutritious	-15.1464
▁women	-15.1464
▁yipped	-15.1464
▁Guardian	-15.1464
▁Mammy	-15.1464
▁lair	-15.1464
▁Jonah	-15.1464
▁yank	-15.1464
▁installed	-15.1464
▁overflowed	-15.1465
bling	-15.1465
▁defended	-15.1467
▁highway	-15.147
▁Ju	-15.147
▁Flour	-15.1472
▁Glue	-15.1473
▁Egg	-15.1474
▁Blu	-15.1476
Co	-15.1476
▁chords	-15.148
▁mu	-15.1483
▁entranced	-15.149
eful	-15.1493
▁Inch	-15.1497
▁Magical	-15.1498
▁duster	-15.1501
ictor	-15.1503
▁Oysters	-15.1505
whee	-15.1515
Popcorn	-15.1519
stupid	-15.152
Bow	-15.1522
▁ripen	-15.1525
▁strangest	-15.1528
▁wetting	-15.1539
mind	-15.1545
▁Cooper	-15.1546
olcano	-15.1548
▁Christopher	-15.1548
▁Flynn	-15.1548
▁Pieces	-15.1548
▁Smudge	-15.1548
▁blister	-15.1548
▁bridle	-15.1548
▁exhaustion	-15.1548
▁motivated	-15.1548
▁observation	-15.1548
▁quartz	-15.1548
▁regardless	-15.1548
▁Gracy	-15.1548
▁Hana	-15.1548
▁beckoned	-15.1549
▁savoured	-15.1549
▁chanting	-15.155
▁Sleepy	-15.1551
guine	-15.1551
▁juggler	-15.1552
▁rectangles	-15.1554
▁mouthful	-15.1561
▁jaw	-15.1569
▁docked	-15.157
▁booed	-15.1572
▁mar	-15.1573
MY	-15.1577
▁saucer	-15.1588
Best	-15.1601
Olive	-15.1605
Count	-15.1605
Susan	-15.1605
Bug	-15.1605
Dance	-15.1605
Chris	-15.1605
yummy	-15.1605
Smile	-15.1606
cracker	-15.1606
By	-15.1606
▁Tin	-15.161
Swing	-15.1611
▁attache	-15.1613
bing	-15.1613
▁Crow	-15.1627
▁Air	-15.1631
▁droop	-15.1631
▁annoy	-15.1632
egular	-15.1634
▁practical	-15.1634
Exploring	-15.1634
▁Gavin	-15.1634
▁Mountain	-15.1634
▁Terrified	-15.1634
▁expand	-15.1634
▁hairdryer	-15.1634
▁saddened	-15.1634
▁gang	-15.1634
▁spew	-15.1634
obyn	-15.1634
▁Cassy	-15.1634
▁Twig	-15.1634
▁Pepe	-15.1635
▁Blacky	-15.1635
▁Tank	-15.1635
▁mysteriously	-15.1638
▁looser	-15.1639
pow	-15.1643
▁competitors	-15.1654
▁donuts	-15.1659
▁pawn	-15.1663
hea	-15.1663
▁Hugs	-15.1683
Jess	-15.1691
record	-15.1691
load	-15.1691
▁Soar	-15.1692
ening	-15.1701
Any	-15.1704
▁investigated	-15.1712
▁straighten	-15.1717
▁interrupt	-15.1718
▁surround	-15.1718
▁jiggle	-15.1719
Deliver	-15.172
▁adamant	-15.172
▁Davy	-15.172
▁Isaac	-15.172
▁Maureen	-15.172
▁Tidy	-15.172
▁agile	-15.172
▁cardinal	-15.172
▁vibrate	-15.172
▁yeast	-15.172
▁border	-15.172
▁wading	-15.172
▁funnel	-15.172
▁limb	-15.172
Arf	-15.172
▁attentively	-15.172
▁Tape	-15.1721
▁Paulina	-15.1722
▁braked	-15.1723
▁Jaya	-15.1724
▁desires	-15.1727
Draw	-15.1735
▁focusing	-15.1735
▁duet	-15.1738
▁Bone	-15.1747
▁shrubs	-15.1758
ica	-15.1771
▁tee	-15.1775
Clean	-15.1777
▁pleas	-15.1778
Shark	-15.1778
[...]
